, 171473
. 153093
de 111017
la 58111
et 55046
que 52446
est 49851
le 49487
les 47051
à 46663
un 41917
l&apos; 39291
des 37765
en 35568
une 34067
d&apos; 31705
nous 29997
vous 29618
a 29382
qui 27962
ce 25301
dans 24918
pour 23684
Et 23600
pas 23291
il 20470
je 20054
&quot; 17504
du 17080
qu&apos; 16904
ne 15896
plus 15459
c&apos; 15014
sur 13481
on 13473
y 12981
ai 12879
n&apos; 12801
? 12524
-- 11327
avec 11265
sont 11228
’ 11130
se 10924
j&apos; 10788
ils 10628
: 10600
au 10562
fait 10432
ces 9801
Je 9637
ont 9455
ça 9177
comme 9175
cette 9071
par 8991
faire 8884
si 8718
C&apos; 8708
é 8545
Il 8433
avons 8375
était 8311
er 7984
tout 7928
mais 7643
ou 7533
s&apos; 7526
Mais 7461
Nous 7256
elle 7023
très 6906
être 6574
me 6383
aux 6240
bien 6115
monde 6045
gens 5913
ent 5841
dé@@ 5834
chose 5647
re@@ 5561
ée 5503
dit 5442
ant 5417
cela 5219
ons 5168
même 5047
és 5005
ait 4974
in@@ 4972
quand 4919
où 4886
leur 4751
Vous 4693
vraiment 4668
ez 4630
J&apos; 4591
notre 4579
été 4571
tous 4544
Donc 4459
suis 4457
La 4438
peut 4370
donc 4307
choses 4211
ans 4204
parce 4197
son 4196
aussi 4112
mon 4074
deux 4072
autre 4024
é@@ 4000
beaucoup 3953
voir 3919
Ce 3911
Le 3815
Les 3768
quelque 3723
dire 3656
ré@@ 3655
ici 3627
vie 3608
te 3601
m&apos; 3541
là 3534
l 3511
s@@ 3501
autres 3434
Ils 3396
elles 3377
ées 3363
avait 3341
entre 3318
votre 3316
pouvez 3312
avoir 3292
nos 3291
peu 3288
temps 3263
- 3198
fois 3179
es 3097
En 3053
comment 3006
On 2985
S@@ 2983
i 2976
Alors 2937
d 2931
ation 2916
avez 2886
ma 2867
mes 2856
pense 2801
aient 2750
sommes 2743
moi 2688
ch@@ 2681
ais 2658
p@@ 2656
e 2643
dont 2635
v@@ 2614
s 2581
-@@ 2572
Si 2560
ses 2556
années 2541
sa 2541
en@@ 2529
encore 2521
eur 2498
leurs 2486
eux 2474
t@@ 2474
ie 2448
vais 2447
r@@ 2438
façon 2434
ale 2379
l@@ 2373
maintenant 2361
c@@ 2357
toutes 2349
alors 2339
tes 2334
i@@ 2332
&gt; 2324
&lt; 2324
transcript 2324
ement 2314
L&apos; 2312
juste 2310
personnes 2286
P@@ 2261
va 2261
g@@ 2259
enfants 2241
B@@ 2240
« 2240
veux 2213
ité 2194
M@@ 2187
b@@ 2180
d@@ 2176
» 2147
o@@ 2139
sans 2134
is@@ 2131
besoin 2128
aire 2115
histoire 2107
tant 2085
C@@ 2084
hui 2082
D@@ 2081
idée 2067
eau 2031
savez 2031
eu 2021
age 2018
an 2010
pays 2004
lui 1975
jamais 1957
pendant 1945
non 1943
ante 1928
quelques 1928
moins 1922
is 1915
di@@ 1914
pouvons 1905
ti@@ 1905
Voici 1897
par@@ 1896
après 1894
parler 1884
ac@@ 1881
eurs 1879
problème 1865
re 1865
c 1860
m@@ 1840
seulement 1824
chaque 1823
L@@ 1804
toujours 1803
ques 1791
peuvent 1787
ter 1775
ag@@ 1773
étaient 1767
or@@ 1766
qu@@ 1762
trois 1759
an@@ 1750
n@@ 1746
pré@@ 1733
Elle 1731
ère 1731
partie 1723
voyez 1723
ar@@ 1721
ou@@ 1716
A@@ 1715
it 1711
vers 1710
soit 1700
est-ce 1692
té 1689
peut-être 1683
o 1681
aujourd&apos; 1678
con@@ 1671
ants 1670
personne 1669
al@@ 1666
am@@ 1664
a@@ 1661
; 1655
in 1654
H@@ 1653
êtes 1648
quoi 1639
exemple 1637
toute 1635
f@@ 1630
première 1623
ations 1621
cet 1616
système 1615
T@@ 1611
el 1601
manière 1596
aires 1592
h@@ 1591
jour 1577
moment 1571
R@@ 1564
étais 1556
avant 1549
travail 1548
commencé 1543
E@@ 1538
ine 1537
question 1534
sûr 1532
li@@ 1524
it@@ 1520
Maintenant 1515
ap@@ 1514
ai@@ 1510
puis 1504
ér@@ 1482
point 1481
F@@ 1472
tr@@ 1466
pourquoi 1463
grand 1436
y@@ 1432
t 1419
sorte 1414
vu 1414
A 1413
Un 1407
aller 1403
assez 1402
Une 1399
cou@@ 1397
avais 1391
/ 1389
mettre 1384
prendre 1381
tique 1375
petit 1374
im@@ 1368
er@@ 1367
qu 1362
che 1355
ales 1353
jusqu&apos; 1352
depuis 1345
Dans 1343
rien 1341
grande 1339
bon 1332
n 1325
on@@ 1323
font 1321
ét@@ 1320
Cela 1313
cerveau 1311
e@@ 1307
technologie 1307
able 1300
ex@@ 1300
J@@ 1298
co@@ 1297
us 1297
pourrait 1290
Quand 1289
è@@ 1288
dis@@ 1281
ad@@ 1280
Parce 1278
u@@ 1277
N@@ 1276
as@@ 1274
u 1267
at@@ 1264
10 1263
genre 1262
al 1260
trouver 1257
% 1255
! 1252
environ 1250
important 1247
millions 1243
ts 1240
avaient 1239
cas 1232
utiliser 1230
Ça 1222
K@@ 1217
vos 1217
ab@@ 1213
em@@ 1212
... 1211
inter@@ 1208
appelle 1206
cr@@ 1202
ite 1201
po@@ 1199
ceci 1194
comprendre 1194
créer 1193
per@@ 1193
faut 1190
passé 1189
passe 1187
ri@@ 1182
données 1180
devons 1177
ance 1171
000 1168
pro@@ 1166
vi@@ 1164
montrer 1163
chez 1157
Merci 1156
nouveau 1155
quelqu&apos; 1155
cré@@ 1149
ers 1149
forme 1147
premier 1147
els 1139
femmes 1136
tu 1134
peux 1127
onn@@ 1124
G@@ 1118
sais 1111
tu@@ 1111
crois 1110
sens 1100
ensuite 1096
voici 1095
ères 1094
es@@ 1093
bonne 1089
donner 1085
pl@@ 1081
simplement 1075
pouvoir 1073
k@@ 1071
av@@ 1069
penser 1069
train 1068
laquelle 1060
problèmes 1059
fi@@ 1056
car 1055
année 1054
ci@@ 1054
ins 1054
ass@@ 1047
plutôt 1045
tion 1039
dollars 1030
homme 1030
Pour 1028
plupart 1028
sou@@ 1028
pi@@ 1023
cours 1020
si@@ 1018
gu@@ 1016
jours 1015
ise 1012
énergie 1009
nouvelle 1007
au@@ 1004
mar@@ 1004
travers 1001
ul@@ 1001
déjà 996
ensemble 996
petite 994
V@@ 991
pris 989
as 981
sous 978
20 976
tions 976
corps 971
mois 969
savoir 964
bou@@ 961
ainsi 951
près 951
agit 950
importe 950
trans@@ 945
antes 944
argent 943
end@@ 943
trop 940
fin 936
espace 934
et@@ 934
j@@ 932
com@@ 931
C 930
mieux 929
projet 928
raison 925
Afrique 922
Comment 922
ue 922
simple 921
ill@@ 916
mo@@ 915
ser@@ 914
bl@@ 913
allons 911
Tout 910
mer 910
vrai 909
côté 908
vont 908
op@@ 906
quel 905
place 904
gros 903
ver@@ 903
veut 903
2 901
doit 901
serait 901
ateur 900
at 899
50 896
appar@@ 894
tre 893
lieu 892
ables 891
femme 891
3 884
ge 884
compte 882
ceux 880
enne 880
mis 880
idées 879
passer 879
changer 878
ent@@ 877
propre 876
cent 875
ville 875
expérience 874
ens 873
om@@ 872
su@@ 868
cher 861
♫ 859
nombre 857
trouve 857
gr@@ 856
ions 855
différentes 853
endroit 853
sera 853
vient 853
I@@ 849
Pourquoi 849
autour 848
contre 847
certains 845
ez-vous 845
parle 845
ot@@ 840
planète 839
il@@ 837
cor@@ 836
air 835
enfant 835
ements 833
ique 831
possible 829
ain 824
trouvé 823
niveau 820
tard 820
part 819
ir@@ 817
quement 815
mon@@ 813
seule 812
bi@@ 810
eu@@ 810
quatre 810
ence 807
image 806
man@@ 804
&apos; 803
santé 801
pr@@ 799
vue 799
quer 798
difficile 795
construire 793
el@@ 792
faisons 792
lumière 792
faites 789
O@@ 788
ents 788
all@@ 787
euse 787
ages 784
ég@@ 784
br@@ 783
fer@@ 782
marché 774
j 773
mé@@ 773
cl@@ 772
réalité 772
pour@@ 771
sur@@ 770
ur@@ 770
nature 768
ph@@ 768
type 768
cellules 767
ines 766
r 765
pos@@ 764
haut 763
mal 758
ir 756
produit 754
lorsque 751
reste 748
allez 747
partir 747
st@@ 746
souvent 745
30 743
mi@@ 743
Cette 742
essayer 741
rez 739
probablement 738
école 738
groupe 736
Au 735
ic@@ 734
maison 734
voulez 734
jeu 732
arrive 730
donne 729
so@@ 728
ter@@ 728
également 728
Ces 727
commencer 726
seul 726
travailler 725
esprit 724
sujet 723
5 722
hommes 722
savons 721
milliards 719
ro@@ 719
société 719
Eh 718
nouvelles 718
regardez 718
z@@ 718
bles 717
pou@@ 717
fl@@ 716
livre 716
Qu&apos; 715
montre 714
pu 711
changement 710
mère 710
univers 709
tellement 708
pe 705
th@@ 703
ellement 702
avions 699
ème 697
différents 695
ette 695
él@@ 694
4 693
art 693
presque 693
voilà 693
apprendre 692
Voilà 690
accord 690
D&apos; 689
devez 689
donné 689
res 688
De 685
humains 685
Bon 684
ille 682
3@@ 681
Bien 681
cinq 680
humain 680
tent 680
m 678
moyen 678
époque 678
bas 677
yeux 676
TED 675
aine 674
cause 673
cour@@ 671
Elles 670
tri@@ 670
photo 669
plusieurs 662
vo@@ 661
complètement 658
ligne 658
lo@@ 658
main 658
regarder 658
ités 657
us@@ 657
alité 656
venir 656
éri@@ 656
guerre 655
réponse 655
Oui 653
intérieur 653
100 651
W@@ 649
demandé 649
ire 649
environnement 648
signifie 648
x 647
heures 646
ol@@ 646
pouvait 645
Ceci 643
iste 643
ordinateur 643
petits 643
its 641
famille 640
pensé 640
voy@@ 640
int@@ 639
rendre 639
sions 638
quelle 637
1 636
début 636
car@@ 635
animaux 634
entendu 633
science 633
teurs 632
dernière 631
long 631
mor@@ 631
be 630
commence 630
processus 630
ren@@ 630
res@@ 630
Des 629
aider 629
tionn@@ 629
gar@@ 628
terre 628
ente 627
s-@@ 627
appelé 626
jou@@ 625
propos 624
fs 622
tête 622
cont@@ 621
ier 621
qué 621
Inde 619
aide 619
ni@@ 619
intéressant 618
ies 616
ches 615
recherche 613
ment 612
teur 612
père 610
vidéo 610
histoires 609
Non 606
f 605
nourriture 605
aurait 604
iques 604
porte 604
questions 604
voiture 603
donn@@ 602
fais 602
appris 600
minutes 600
cu@@ 598
modèle 598
voyons 597
Dieu 595
ss@@ 595
Terre 594
era 594
disent 593
musique 591
lequel 590
partout 590
aime 589
ateurs 587
isme 587
voit 587
marche 583
bo@@ 580
ob@@ 580
dessus 579
développement 579
pu@@ 578
OK 577
vol@@ 577
Comme 576
capacité 575
dev@@ 575
voulais 575
6 574
Que 574
tiques 574
cul@@ 573
fu@@ 572
images 572
por@@ 572
certaines 571
iez 571
information 571
aucun 570
meilleur 567
dis 565
mesure 565
érer 565
public 564
8 562
ni 562
exactement 561
abord 560
dernières 560
face 560
vivre 560
prix 559
communauté 558
devenir 558
form@@ 557
informations 557
Ainsi 555
jouer 555
réellement 555
ances 553
ess@@ 553
ton 553
ains 552
fin@@ 552
Mon 551
dernier 551
ist@@ 551
no@@ 550
base 549
cancer 547
film 547
voulons 547
alement 545
ban@@ 544
existe 543
écrit 543
én@@ 543
décidé 542
rapidement 541
vis@@ 541
futur 540
incroyable 540
pass@@ 539
politique 539
découvert 538
e-@@ 538
ets 538
nom 538
tres 538
dr@@ 537
mort 537
état 537
amis 536
aucune 535
dois 535
iter 535
loin 535
coup 534
grandes 534
semble 534
Est-ce 533
15 532
grâce 531
ff@@ 530
évolution 530
New 527
effet 526
grands 526
ten@@ 526
to@@ 525
men@@ 524
sait 524
pé@@ 523
choix 522
cro@@ 522
culture 522
ettes 522
rai@@ 522
ressemble 522
sé@@ 522
un@@ 521
endroits 520
viennent 520
créé 519
suite 517
petites 516
.@@ 515
U@@ 514
siècle 514
regarde 513
indi@@ 512
arriver 511
celle 511
év@@ 511
sup@@ 510
fon@@ 509
centre 508
ché 508
demande 507
force 507
longtemps 506
plan@@ 506
â@@ 506
entier 505
six 505
capable 504
fille 504
oui 504
design 503
ju@@ 503
vent 503
É@@ 503
for@@ 502
iss@@ 502
obtenir 501
peur 501
19@@ 500
4@@ 500
milliers 500
systèmes 500
ain@@ 497
population 497
poser 497
prim@@ 496
ra 496
États-Unis 496
istes 495
prom@@ 495
atif 494
ev@@ 494
taille 494
tez 494
gauche 493
rend@@ 492
mots 491
attention 490
der 490
illes 490
Ch@@ 489
jeunes 489
ues 489
économie 489
ner 488
comp@@ 487
dent 487
tés 487
rap@@ 486
w@@ 485
Al@@ 484
entr@@ 484
min@@ 484
euses 483
iser 483
différence 482
5@@ 481
g 481
énorme 481
meilleure 480
7 478
devient 478
gi@@ 478
gl@@ 478
importante 477
ites 477
produire 477
ds 476
ré 476
aimerais 475
arrivé 475
compris 475
selon 475
veulent 475
éducation 475
action 474
ble 474
hi@@ 473
humaine 473
t-il 473
ï@@ 473
celui 472
permet 472
heureux 471
milieu 471
mot 471
spéci@@ 471
sub@@ 471
gouvernement 470
parfois 470
ète 470
Internet 469
esse 469
ler 469
sol@@ 469
sécurité 468
équipe 466
Chine 465
devant 465
inc@@ 465
utilise 465
os 464
produits 464
sortes 464
villes 464
Ou 463
ach@@ 463
allé 463
devrait 463
gé@@ 463
mêmes 463
fut 462
gen@@ 462
plein 462
surface 462
scientifiques 461
vision 460
différent 459
1@@ 458
pan@@ 458
port@@ 457
particulier 456
York 455
atta@@ 455
erait 455
parlé 455
machine 454
ves 454
termes 453
échelle 453
tel 452
ra@@ 451
ress@@ 451
afin 450
t-@@ 450
dou@@ 449
rée 449
droite 448
mouvement 448
ons-nous 448
puisse 448
salle 448
facile 447
mètres 447
vite 447
dét@@ 446
parents 446
pensez 446
tement 446
Amérique 445
Oh 445
ari@@ 445
chacun 445
voudrais 444
âge 443
pensons 441
40 440
conn@@ 440
étudiants 440
attend@@ 439
cal@@ 439
pen@@ 439
technologies 439
ven@@ 439
combien 438
Par 437
le@@ 437
mal@@ 437
certain 436
ec@@ 436
but 435
chance 435
or 435
tons 435
ang@@ 434
ati@@ 434
imaginer 431
jeune 431
demander 429
rou@@ 429
ê@@ 429
J 428
do@@ 428
fond 428
programme 428
voie 428
Pas 427
Puis 427
maladie 427
mondiale 427
ç@@ 427
ô@@ 427
80 426
vies 426
ais@@ 425
issent 425
dû 424
entes 424
finalement 424
formes 424
um 424
x@@ 424
z 424
amour 423
physique 423
thé@@ 423
Par@@ 422
fil@@ 422
fr@@ 422
doivent 421
Su@@ 420
ant@@ 420
bas@@ 420
contrôle 420
conférence 419
heure 419
am 418
prend 418
présent 418
situation 417
changé 416
points 416
rons 416
sc@@ 416
enti@@ 415
préf@@ 415
rel@@ 415
bout 414
photos 414
ma@@ 413
nu@@ 413
rapport 413
seconde 413
èrent 413
ADN 411
Qu@@ 411
60 410
ve 410
In@@ 409
ager 409
devenu 409
pli@@ 409
utilisé 409
bar@@ 408
construit 408
espèce 408
porter 408
bio@@ 407
du@@ 407
carte 406
solution 406
table 406
deuxième 404
étions 404
autant 403
réalis@@ 403
Vo@@ 402
droit 402
h 402
lu@@ 402
pensent 402
per 402
coll@@ 401
fonctionne 401
livres 401
ment@@ 401
sortir 401
nouveaux 400
né 400
fier 399
lib@@ 399
moitié 399
filles 398
nuit 398
rés 398
rés@@ 398
croy@@ 397
lire 397
pièce 397
propres 397
rer 397
virus 397
ay@@ 396
cer@@ 395
site 395
ver 395
Mon@@ 394
se@@ 394
terme 394
nes 393
éco@@ 393
anti@@ 392
avenir 391
raisons 391
semaines 391
fai@@ 390
montré 390
entreprise 389
prise 389
sent@@ 389
derrière 388
différente 388
prenez 388
constru@@ 387
scientifique 387
espèces 386
ordinateurs 386
bâtiment 385
certaine 385
objets 385
personn@@ 385
semaine 385
vari@@ 385
logique 384
là-bas 383
océan 383
ouv@@ 383
partager 383
structure 383
pose 382
éch@@ 382
étude 382
our@@ 381
théorie 381
z-vous 381
fini 380
outils 380
rs 380
réel 380
sal@@ 380
sous-@@ 380
ci 379
comportement 379
Ensuite 378
croissance 378
Ar@@ 377
can@@ 377
compassion 377
p 377
pourrions 377
pouvais 377
centaines 376
ect@@ 376
objet 376
position 376
réseau 376
tor@@ 376
trouv@@ 376
espère 375
gén@@ 374
travaille 374
ailleurs 373
jeux 373
raconter 373
Z@@ 372
arrière 372
bu@@ 372
En@@ 371
faisant 371
ête 371
– 371
Tu 370
col@@ 370
contr@@ 370
soient 370
compar@@ 369
fo@@ 369
tirer 369
plan 368
suivre 368
écrire 368
essayé 367
ger 367
D 366
met@@ 366
quent 365
valeur 365
éré 365
pourraient 364
trai@@ 364
économique 364
troisième 363
12 362
comm@@ 362
met 362
soleil 362
disait 361
relation 361
tou@@ 361
gènes 360
itation 360
laisser 360
pay@@ 360
règles 360
utilisant 360
ative 359
aut@@ 359
intéress@@ 359
lis@@ 359
matière 359
vitesse 359
domaine 358
gars 358
impression 358
k 358
résoudre 358
accep@@ 357
rement 357
ru@@ 357
résultat 357
&#91; 356
&#93; 356
ann@@ 356
compos@@ 356
cri@@ 356
posé 356
voix 356
ici@@ 355
ide 355
logie 355
maladies 355
mu@@ 355
scène 355
ats 354
faisait 354
fort 354
projets 354
résultats 354
sau@@ 354
trucs 354
G 353
Y@@ 353
expliquer 353
pourriez 353
rent 353
sol 353
étant 353
autor@@ 352
entreprises 352
gue 352
nombreuses 352
nombreux 352
ture 352
zone 352
bal@@ 351
pétrole 351
val@@ 350
9 349
cher@@ 349
premiers 349
super@@ 349
quantité 348
tomb@@ 348
aura 347
esti@@ 347
ign@@ 347
ut 347
vois 347
S 346
connu 346
lic@@ 345
venu 345
25 344
faite 344
onne 344
parmi 344
rait 344
ès 344
ande 342
cho@@ 342
taux 342
tra@@ 342
acheter 341
tenir 341
truc 341
L 340
développer 340
inqui@@ 340
journée 340
mains 340
sembl@@ 340
économ@@ 340
An@@ 339
réfléchir 339
lé@@ 338
rendu 338
dic@@ 337
man 337
sept 337
Etats-Unis 336
allait 336
and@@ 335
continu@@ 335
types 335
écou@@ 335
dés@@ 334
représent@@ 334
souff@@ 334
tendance 334
viv@@ 334
aise 333
ressources 333
travaillé 333
bonnes 332
dispar@@ 332
espoir 332
aff@@ 331
ar 331
atique 331
hu@@ 331
voulait 331
Ici 330
exam@@ 330
oubli@@ 330
période 330
Con@@ 329
Europe 329
go@@ 329
langage 329
mang@@ 329
réfléch@@ 329
êtres 329
abilité 328
qualité 328
sor@@ 328
20@@ 327
2@@ 327
Après 327
assis 327
bonheur 327
dé 327
patients 327
pes 327
vivent 327
som@@ 326
unique 326
0@@ 325
M 325
att@@ 325
bons 325
tas 325
inst@@ 324
lement 324
mauvais 324
construction 322
entend@@ 322
rem@@ 322
ront 322
visage 322
irs 321
pression 321
utilis@@ 321
classe 320
crée 320
loc@@ 320
modèles 320
anc@@ 319
bras 319
groupes 319
génération 319
source 319
appro@@ 318
oc@@ 318
quel@@ 318
etc 317
fils 317
ig@@ 317
seront 317
téléphone 317
voyage 317
Ou@@ 316
animal 316
ins@@ 316
inv@@ 316
parties 316
réalisé 316
succès 316
découvrir 315
march@@ 315
ner@@ 315
ve@@ 315
devrions 314
voitures 314
CA 313
extrêmement 313
habitu@@ 313
pourtant 313
savent 313
tour 312
cas@@ 310
chemin 310
déf@@ 310
million 310
sion 310
ép@@ 310
études 310
500 309
B 309
Mar@@ 309
approche 309
développ@@ 309
rend 309
arriv@@ 308
cap@@ 308
emp@@ 308
idé@@ 308
ram@@ 308
viol@@ 308
Avec 307
mou@@ 307
atteindre 306
confiance 306
erie 306
général 306
expériences 305
impli@@ 305
puis@@ 305
traitement 305
ate 304
cop@@ 304
diri@@ 304
iner 304
lorsqu&apos; 304
monter 304
parti@@ 304
série 304
bre 303
chercher 303
sec@@ 303
son@@ 303
vers@@ 303
zones 303
200 302
bureau 302
de@@ 302
lev@@ 302
ade 301
disant 301
déc@@ 301
importance 301
matin 301
observ@@ 301
patient 301
pauvres 301
permet@@ 301
7@@ 300
accès 300
bon@@ 300
change 300
climatique 300
connaissance 300
exc@@ 300
rac@@ 300
sav@@ 300
vérité 300
À 300
70 299
associ@@ 299
bat@@ 299
impact 299
Qui 298
absolument 298
aines 298
ca@@ 298
const@@ 298
est@@ 298
imp@@ 298
meilleurs 298
pouvaient 298
bri@@ 297
cœur 297
décou@@ 297
mauvaise 297
pren@@ 297
éléments 297
œu@@ 297
aim@@ 296
ane 296
belle 296
manger 296
Ma 295
arrê@@ 295
défin@@ 295
industrie 295
prof@@ 295
utilisent 295
11 294
appel@@ 294
capables 294
telle 294
vend@@ 294
explo@@ 293
mis@@ 293
recherches 293
syn@@ 293
to 293
crise 292
part@@ 292
couleur 291
fil 291
os@@ 291
peine 291
quant 291
risque 291
équ@@ 291
90 290
ami 290
conscience 290
ennes 290
moyenne 290
représente 290
Google 289
anglais 289
ber@@ 289
glace 289
lég@@ 289
pal@@ 289
prochaine 289
version 289
avion 288
bes 288
hor@@ 288
particulièrement 288
roul@@ 288
conception 287
es-@@ 287
int 287
robot 287
9@@ 286
extraordinaire 286
super 286
uns 286
activité 285
aï@@ 285
complexe 285
morceau 285
acc@@ 284
lesquelles 284
lui-même 284
noir 284
papier 284
rapide 284
tur@@ 284
aiss@@ 283
imagin@@ 283
cherch@@ 282
commen@@ 282
effectivement 282
revenir 282
visu@@ 282
Com@@ 281
aît 281
marcher 281
raient 281
rouge 281
sti@@ 281
alis@@ 280
eaux 280
sh@@ 280
te@@ 280
tourn@@ 280
vou@@ 280
arrêter 279
chang@@ 279
mét@@ 279
pe@@ 279
peau 279
psycho@@ 279
totalement 279
écran 279
ences 278
ge@@ 278
instant 278
pensais 278
perdu 278
vr@@ 278
entendre 277
faits 277
ran@@ 277
appelée 276
ard 276
ey 276
jo@@ 276
mission 276
puissance 276
rôle 276
Peut-être 275
doc@@ 275
dre 275
itaire 275
lors 275
qués 275
réussi 275
sein 275
travaill@@ 275
tôt 275
contribu@@ 274
direction 274
production 274
récemment 274
serv@@ 274
viens 274
étape 274
entrer 272
fonctionn@@ 272
multi@@ 272
village 272
î@@ 272
entre@@ 271
essay@@ 271
exemples 271
pensée 271
trou@@ 271
étudi@@ 271
étudier 271
6@@ 270
ail 270
ajou@@ 270
and 270
changements 270
né@@ 270
prépar@@ 270
transform@@ 270
Au@@ 269
Ma@@ 269
merveilleux 269
rec@@ 269
utilisons 269
Ca 268
Ne 268
Sud 268
asser 268
cam@@ 268
possibilité 268
sentiment 268
sie 268
tures 268
cellule 267
log@@ 267
rue 267
vieux 267
a-t-il 266
ath@@ 266
cach@@ 266
esp@@ 266
prenons 266
tif 266
ciens 265
continuer 265
suiv@@ 265
suivante 265
Dé@@ 264
bres 264
deviennent 264
dur 264
littéralement 264
ori@@ 264
région 264
vivant 264
écoles 264
émer@@ 264
défi 263
humanité 263
impossible 263
incroyablement 263
sépar@@ 263
Même 262
Notre 262
création 262
langue 262
ne@@ 262
page 262
Certains 261
aître 261
demand@@ 261
directement 261
développé 261
fac@@ 261
huit 261
laboratoire 261
èrement 261
,@@ 260
atiques 260
frapp@@ 260
mé 260
plantes 260
présent@@ 260
rester 260
rom@@ 260
Mo@@ 259
appareil 259
cli@@ 259
code 259
dehors 259
enc@@ 259
forc@@ 259
mur 259
traiter 259
um@@ 259
ure 259
vécu 259
bul@@ 258
considé@@ 258
endre 258
extérieur 258
matériaux 258
message 258
siez 258
ta@@ 258
vert 258
celles 257
lé 257
public@@ 257
z-@@ 257
élev@@ 257
arg@@ 256
az@@ 256
durant 256
liste 256
longue 256
quelles 256
rég@@ 256
souhai@@ 256
tait 256
18 255
Le@@ 255
beau 255
celui-ci 255
inf@@ 255
issons 255
médicaments 255
sociétés 255
ta 255
terrain 255
airement 254
atifs 254
simples 254
vraie 254
concept 253
croire 253
enfin 253
façons 253
politiques 253
service 253
surtout 253
time 253
travaillent 253
alisation 252
brill@@ 252
ho@@ 252
re-@@ 252
éti@@ 252
avère 251
chi@@ 251
commencent 251
doute 251
intérêt 251
large 251
pire 251
Chaque 250
architecture 250
enseign@@ 250
out@@ 250
Chris 249
actions 249
disons 249
intégr@@ 249
secondes 249
chiffres 248
conditions 248
est-il 248
soir 248
carbone 247
collec@@ 247
isé 247
moyens 247
pouss@@ 247
télé@@ 247
Plus 246
Regardez 246
agne 246
calcul@@ 246
der@@ 246
ell@@ 246
honn@@ 246
indre 246
parl@@ 246
premières 246
rencontré 246
Aujourd&apos; 245
ak@@ 245
merci 245
pom@@ 245
qui@@ 245
quée 245
reçu 245
vir@@ 245
Ro@@ 244
auparavant 244
constitu@@ 244
dites 244
ote 244
plac@@ 244
produ@@ 244
racon@@ 244
sauv@@ 244
sociaux 244
solaire 244
trouvent 244
uniquement 244
ément 244
8@@ 243
Beaucoup 243
arbres 243
envoyer 243
identi@@ 243
oi 243
permettre 243
écr@@ 243
affaires 242
biologie 242
cin@@ 242
devait 242
espér@@ 242
isation 242
proche 242
université 242
erai 241
retour 241
électricité 241
étonn@@ 241
commun 240
haute 240
iller 240
kilomètres 240
my@@ 240
sauver 240
traditionn@@ 240
écl@@ 240
certainement 239
emment 239
innovation 239
off@@ 239
pon@@ 239
savais 239
tifs 239
tée 239
acti@@ 238
ah 238
appréci@@ 238
fonction 238
pil@@ 238
révolution 238
apprentissage 237
intéressante 237
médias 237
pousser 237
présente 237
réc@@ 237
Nord 236
Pendant 236
diver@@ 236
id@@ 236
nom@@ 236
organisation 236
vivons 236
web 236
Tous 235
démocratie 235
non-@@ 235
social 235
adop@@ 234
améliorer 234
beauté 234
concevoir 234
fabriquer 234
gri@@ 234
individus 234
peu@@ 234
thèse 234
unes 234
écouter 234
étoiles 234
continue 233
gro@@ 233
one 233
onner 233
portable 233
priv@@ 233
route 233
réaliser 233
adap@@ 232
amener 232
dès 232
essentiellement 232
paix 232
parti 232
pratique 232
préc@@ 232
199@@ 231
eté 231
masse 231
robots 231
répondre 231
sociale 231
connect@@ 230
logiques 230
loi 230
modi@@ 230
tal@@ 230
atten@@ 229
bour@@ 229
dur@@ 229
end 229
graphique 229
gratu@@ 229
importantes 229
internet 229
pourrais 229
transformer 229
Gr@@ 228
Imaginez 228
financi@@ 228
mode 228
nég@@ 228
ps 228
publi@@ 228
vit 228
voler 228
Car@@ 227
coeur 227
ing@@ 227
ulaire 227
éli@@ 227
abor@@ 226
agir 226
pauvreté 226
tis@@ 226
uni@@ 226
afric@@ 225
arch@@ 225
avanc@@ 225
bru@@ 225
ciel 225
contexte 225
entraî@@ 225
finir 225
gagner 225
génér@@ 225
isent 225
laiss@@ 225
médecine 225
physi@@ 225
relations 225
ressent@@ 225
répondu 225
T 224
alli@@ 224
celle-ci 224
fabri@@ 224
hum@@ 224
i-@@ 224
sexu@@ 224
I 223
ates 223
coût 223
essayons 223
ile 223
opération 223
sin@@ 223
tuer 223
bébé 222
clair 222
connaiss@@ 222
courant 222
fié 222
km 222
morts 222
pens@@ 222
présentation 222
tient 222
yer 222
étrang@@ 222
18@@ 221
discours 221
diversité 221
films 221
gam@@ 221
liberté 221
lig@@ 221
´ 221
.000 220
aurais 220
bran@@ 220
cultu@@ 220
dents 220
machines 220
naturel 220
nécess@@ 220
pa@@ 220
pla@@ 220
prennent 220
tiens 220
tiers 220
Jo@@ 219
agé 219
ayant 219
fallait 219
feu 219
rési@@ 219
atives 218
cre@@ 218
eront 218
gaz 218
médic@@ 218
ong@@ 218
souris 218
str@@ 218
-je 217
allais 217
fication 217
moderne 217
revenu 217
réseaux 217
réun@@ 217
suivant 217
test 217
Gu@@ 216
Re@@ 216
centr@@ 216
créativité 216
dat@@ 216
demi 216
dessous 216
di 216
déplac@@ 216
eil 216
industri@@ 216
jet@@ 216
lever 216
moi-même 216
prises 216
tive 216
Quel 215
béné@@ 215
chanson 215
charge 215
détru@@ 215
fro@@ 215
hy@@ 215
ond@@ 215
répon@@ 215
solutions 215
toi 215
viend@@ 215
-là 214
Car 214
assembl@@ 214
issez 214
o-@@ 214
océans 214
organismes 214
sang 214
tourner 214
utile 214
Cor@@ 213
essi@@ 213
faible 213
hab@@ 213
produc@@ 213
progr@@ 213
regardé 213
violence 213
aband@@ 212
ah@@ 212
aison 212
app@@ 212
au-delà 212
chois@@ 212
coû@@ 212
individu@@ 212
lancer 212
permis 212
pied 212
professeur 212
provo@@ 212
sciences 212
tation 212
augment@@ 211
b 211
imaginez 211
micro@@ 211
mourir 211
médi@@ 211
organis@@ 211
pas@@ 211
poissons 211
potentiel 211
professionn@@ 211
sem@@ 211
utilisation 211
alités 210
arri@@ 210
dit@@ 210
iers 210
milit@@ 210
ours 210
partage 210
diff@@ 209
enn@@ 209
fourn@@ 209
gé 209
hôpital 209
libre 209
ouvert 209
passent 209
séqu@@ 209
Très 208
X@@ 208
allée 208
bre@@ 208
communautés 208
don 208
nor@@ 208
outil 208
reli@@ 208
rées 208
température 208
évidemment 208
actuellement 207
cartes 207
deven@@ 207
dimensions 207
décisions 207
enregistr@@ 207
iv@@ 207
magnifique 207
onc@@ 207
terri@@ 207
Co@@ 206
Mars 206
chef 206
contenu 206
dix 206
efficace 206
formation 206
génial 206
ivent 206
mati@@ 206
minute 206
mise 206
neuro@@ 206
onnement 206
opportunité 206
ordre 206
sent 206
services 206
sig@@ 206
ti 206
E 205
Là 205
conduit 205
cule 205
inform@@ 205
lie 205
lien 205
mag@@ 205
manque 205
opér@@ 205
organ@@ 205
plastique 205
rép@@ 205
tent@@ 205
verrez 205
ène 205
Ré@@ 204
a-@@ 204
auto-@@ 204
discu@@ 204
dés 204
ement@@ 204
essaye 204
gré 204
pieds 204
tomber 204
élé@@ 204
éro@@ 204
N&apos; 203
article 203
battre 203
blo@@ 203
condu@@ 203
droits 203
ent-ils 203
exp@@ 203
génétique 203
hom@@ 203
neuf 203
procé@@ 203
réponses 203
valeurs 203
amélior@@ 202
facilement 202
faux 202
lesquels 202
milliard 202
noire 202
sérieux 202
travers@@ 202
tro@@ 202
vement 202
ature 201
capit@@ 201
conc@@ 201
ili@@ 201
informatique 201
mettent 201
mondi@@ 201
nécessaire 201
ors 201
pièces 201
réduire 201
vacc@@ 201
érieure 201
David 200
affi@@ 200
ague 200
cien 200
divis@@ 200
essaie 200
grav@@ 200
hér@@ 200
mat@@ 200
ore@@ 200
plaisir 200
sentir 200
éloign@@ 200
étrange 200
û@@ 200
Pro@@ 199
bactéries 199
bilité 199
cep@@ 199
compagnie 199
cuisine 199
désormais 199
issement 199
moteur 199
origine 199
poisson 199
remarqu@@ 199
soins 199
sp@@ 199
adore 198
agent 198
arrivent 198
ay 198
concentr@@ 198
démar@@ 198
fic@@ 198
inventé 198
mer@@ 198
électr@@ 198
chent 197
court 197
final 197
lent 197
tâche 197
univers@@ 197
ambi@@ 196
anim@@ 196
envers 196
gouvern@@ 196
he 196
inten@@ 196
lim@@ 196
médecin 196
numérique 196
personnel 196
ty@@ 196
Quelle 195
Sur 195
besoins 195
eff@@ 195
emb@@ 195
ession 195
particules 195
ports 195
positi@@ 195
raconte 195
radi@@ 195
tic@@ 195
tiennent 195
écriv@@ 195
Combien 194
Lorsque 194
aliser 194
devraient 194
découverte 194
gn@@ 194
monte 194
nucléaire 194
passion 194
positif 194
précé@@ 194
venue 194
All@@ 193
are 193
communication 193
concerne 193
dem@@ 193
forces 193
illi@@ 193
inte 193
limites 193
mondial 193
plat@@ 193
évi@@ 193
éviter 193
appelons 192
blement 192
dedans 192
décision 192
garder 192
hé@@ 192
vidéos 192
voient 192
éni@@ 192
évolu@@ 192
300 191
atte@@ 191
choisir 191
clairement 191
erreurs 191
habitude 191
intéresse 191
née 191
observer 191
proj@@ 191
publique 191
soli@@ 191
tran@@ 191
ador@@ 190
atteint 190
complexité 190
ges 190
mas@@ 190
plong@@ 190
puissent 190
ris@@ 190
ron@@ 190
signific@@ 190
vér@@ 190
èmes 190
aiment 189
américain 189
analy@@ 189
attendre 189
bébés 189
ca 189
campagne 189
cell@@ 189
enf@@ 189
faisaient 189
gag@@ 189
ing 189
intelligence 189
marchés 189
montrent 189
naissance 189
tend@@ 189
voulaient 189
Où 188
Sh@@ 188
appeler 188
autom@@ 188
char@@ 188
don@@ 188
dépend@@ 188
gouvernements 188
ires 188
ois 188
oiseaux 188
payer 188
poids 188
souven@@ 188
John 187
Po@@ 187
S&apos; 187
avis 187
blanc 187
ection 187
ennu@@ 187
immédiatement 187
issant 187
la@@ 187
ole 187
our 187
parlons 187
progrès 187
propri@@ 187
til@@ 187
toire 187
vas@@ 187
vres 187
étique 187
Di@@ 186
allés 186
connaissons 186
des@@ 186
entièrement 186
fix@@ 186
former 186
isant 186
ister 186
lancé 186
mont@@ 186
passionn@@ 186
sac@@ 186
suivi 186
vre 186
16 185
Pr@@ 185
Quel@@ 185
armée 185
brû@@ 185
cel@@ 185
connaissez 185
eusement 185
extr@@ 185
four@@ 185
mathématiques 185
membres 185
numéro 185
objectif 185
permettent 185
preuve 185
protéger 185
tableau 185
tives 185
trom@@ 185
tél@@ 185
virtu@@ 185
véritable 185
accél@@ 184
ame 184
combin@@ 184
consommation 184
donnent 184
eng@@ 184
expli@@ 184
moments 184
remplac@@ 184
t&apos; 184
veill@@ 184
électrique 184
aci@@ 183
age@@ 183
américains 183
bateau 183
compréhension 183
cy@@ 183
dons 183
effets 183
encour@@ 183
expériment@@ 183
fréqu@@ 183
jec@@ 183
lin@@ 183
nord 183
VIH 182
appli@@ 182
atmosphère 182
bus 182
complexes 182
couleurs 182
dée 182
molécules 182
parlent 182
pouvions 182
prison 182
présenter 182
prêt 182
puissant 182
sommet 182
trou 182
ération 182
affaire 181
artiste 181
asse 181
dans@@ 181
ends 181
explique 181
fascin@@ 181
fou@@ 181
grandi 181
hypo@@ 181
isse 181
oxygène 181
prati@@ 181
rêve 181
seraient 181
sorti 181
télévision 181
au-dessus 180
chambre 180
dom@@ 180
réus@@ 180
soci@@ 180
sud 180
technique 180
tourne 180
urb@@ 180
venant 180
Afghanistan 179
Ex@@ 179
Toutes 179
cad@@ 179
chimiques 179
différences 179
familles 179
ignor@@ 179
lit 179
perdre 179
révél@@ 179
venait 179
adultes 178
aill@@ 178
bord 178
coin 178
colon@@ 178
commençons 178
en-@@ 178
forte 178
graphi@@ 178
isons 178
mari@@ 178
mâ@@ 178
pain 178
religion 178
uc@@ 178
voulu 178
Br@@ 177
TED@@ 177
auraient 177
cles 177
concentrer 177
derniers 177
devais 177
distance 177
effec@@ 177
exist@@ 177
gâ@@ 177
oblig@@ 177
onné 177
passait 177
principe 177
rassembl@@ 177
rentr@@ 177
reven@@ 177
vendre 177
Nor@@ 176
Ok 176
ades 176
chant 176
durable 176
eux-mêmes 176
neurones 176
occup@@ 176
ots 176
phénomène 176
pol@@ 176
péri@@ 176
riche 176
trouver@@ 176
appel 175
artifici@@ 175
aviez 175
coup@@ 175
graphie 175
importants 175
mécan@@ 175
responsabilité 175
riches 175
statistiques 175
trice 175
Mal@@ 174
amus@@ 174
ans@@ 174
arbre 174
bleu 174
contact 174
iles 174
iti@@ 174
lignes 174
montr@@ 174
police 174
produisent 174
regardant 174
soi 174
tab@@ 174
24 173
Li@@ 173
act@@ 173
cens@@ 173
cerveaux 173
confron@@ 173
conserv@@ 173
course 173
institutions 173
invent@@ 173
joue 173
mères 173
tat@@ 173
14 172
Richard 172
ail@@ 172
bor@@ 172
collègues 172
devi@@ 172
die 172
départ 172
entière 172
gie 172
her@@ 172
mi 172
naturelle 172
not@@ 172
occident@@ 172
sauf 172
ser 172
sphère 172
sure 172
t-on 172
élément 172
épar@@ 172
adi@@ 171
armes 171
arr@@ 171
artistes 171
atti@@ 171
bois 171
définition 171
hors 171
iné 171
mathémati@@ 171
me@@ 171
sujets 171
Londres 170
bizarre 170
créatures 170
disaient 170
expression 170
gène 170
hier 170
justice 170
mesurer 170
nés 170
t-elle 170
vit@@ 170
véri@@ 170
audi@@ 169
ayons 169
connaissent 169
devenue 169
erreur 169
explorer 169
fonctionner 169
gence 169
journalis@@ 169
ke 169
lanc@@ 169
ous 169
profondément 169
rais@@ 169
rire 169
seuls 169
tivité 169
évolué 169
agri@@ 168
apporter 168
cérébr@@ 168
douleur 168
imagination 168
lu 168
menti@@ 168
particip@@ 168
rai 168
revenus 168
verre 168
vol 168
çons 168
échantill@@ 168
élèves 168
Américains 167
No@@ 167
amment 167
bâtiments 167
conque 167
célèbre 167
ièmement 167
laissé 167
lam@@ 167
lois 167
majorité 167
notion 167
obtenez 167
oh 167
ories 167
oy@@ 167
port 167
pén@@ 167
rest@@ 167
sible 167
sionn@@ 167
sité 167
tivement 167
vin 167
yons 167
étudiant 167
acqu@@ 166
alimentaire 166
bouger 166
calcul 166
descend@@ 166
ever 166
fantastique 166
rir 166
résol@@ 166
techniques 166
Cet 165
Personne 165
architec@@ 165
clé 165
détails 165
fond@@ 165
génome 165
humaines 165
ix 165
laisse 165
nation 165
optimis@@ 165
pouvons-nous 165
prochaines 165
reço@@ 165
tot@@ 165
toucher 165
tre@@ 165
venus 165
2000 164
consom@@ 164
do 164
grandis@@ 164
myst@@ 164
possibilités 164
èle 164
So@@ 163
consci@@ 163
conséquences 163
contrôler 163
dos 163
est-à-dire 163
manières 163
mes@@ 163
od@@ 163
ples 163
profond 163
rappelle 163
regardons 163
religi@@ 163
rencontr@@ 163
sort 163
tourné 163
çant 163
énormes 163
arriver@@ 162
aspect 162
chem@@ 162
distribu@@ 162
isol@@ 162
pat@@ 162
ral@@ 162
structures 162
stu@@ 162
symbo@@ 162
tan@@ 162
tour@@ 162
ètre 162
élevé 162
évén@@ 162
P 161
carrière 161
conflit 161
cool 161
côte 161
dez 161
enthousias@@ 161
faisais 161
favor@@ 161
ices 161
igne 161
jus@@ 161
meilleures 161
milli@@ 161
médecins 161
ouvrir 161
planètes 161
ry 161
règle 161
servir 161
soul@@ 161
te-@@ 161
tho@@ 161
tradu@@ 161
tué 161
Ber@@ 160
accro@@ 160
américaine 160
commerci@@ 160
conçu 160
domin@@ 160
engag@@ 160
esthé@@ 160
gagné 160
pensait 160
prot@@ 160
quotidi@@ 160
remarqué 160
sites 160
spec@@ 160
tra 160
trouvez 160
vrai@@ 160
adol@@ 159
amène 159
chau@@ 159
forêt 159
istance 159
marque 159
oph@@ 159
pleine 159
programmes 159
trait 159
ède 159
émotions 159
évident 159
Ac@@ 158
R 158
bale@@ 158
café 158
chien 158
civi@@ 158
d-@@ 158
devriez 158
dro@@ 158
détermin@@ 158
logiciel 158
matériel 158
occasion 158
pai@@ 158
passant 158
peuple 158
portent 158
puiss@@ 158
pul@@ 158
quées 158
reconn@@ 158
rythme 158
récup@@ 158
the 158
vieill@@ 158
ège 158
échou@@ 158
ôme 158
K 157
Mi@@ 157
ace 157
aimer@@ 157
ali@@ 157
boîte 157
connaître 157
mettez 157
mortalité 157
mér@@ 157
tap@@ 157
travaillons 157
émotionn@@ 157
équilibre 157
choisi 156
cultures 156
câ@@ 156
din@@ 156
déclar@@ 156
enter 156
envie 156
erons 156
hasard 156
indépend@@ 156
insectes 156
logue 156
mouvements 156
niveaux 156
pages 156
parfaitement 156
preuves 156
riez 156
sa@@ 156
satis@@ 156
souviens 156
sû@@ 156
télé 156
CO2 155
chan@@ 155
chinois 155
devoir 155
espaces 155
garçons 155
héros 155
neu@@ 155
parfait 155
pres@@ 155
seu@@ 155
tests 155
émissions 155
13 154
Deux 154
Encore 154
Q@@ 154
actu@@ 154
actuelle 154
affec@@ 154
ationn@@ 154
avance 154
blan@@ 154
chaîne 154
clin@@ 154
difficiles 154
dési@@ 154
lieux 154
mid@@ 154
naturel@@ 154
pap@@ 154
ray@@ 154
rencontrer 154
réci@@ 154
zéro 154
œil 154
Th@@ 153
Ti@@ 153
conse@@ 153
critique 153
go 153
merveilleuse 153
num@@ 153
ons-@@ 153
pauvre 153
sen@@ 153
ssi@@ 153
temp@@ 153
émo@@ 153
Est 152
Laissez-moi 152
Mc@@ 152
auquel 152
cle 152
ea@@ 152
employ@@ 152
grosse 152
han@@ 152
identité 152
le-@@ 152
mené 152
moindre 152
mén@@ 152
oul@@ 152
positive 152
pouviez 152
rant 152
réaction 152
sons 152
taient 152
trie 152
198@@ 151
N 151
ablement 151
achet@@ 151
aissent 151
aw@@ 151
changent 151
courir 151
excit@@ 151
gagn@@ 151
garçon 151
mémoire 151
nan@@ 151
prêts 151
quels 151
rempl@@ 151
second 151
stade 151
symé@@ 151
tes@@ 151
trouvons 151
visi@@ 151
abeilles 150
acte 150
caméra 150
couche 150
dure 150
déplacer 150
ia 150
introdu@@ 150
nulle 150
occuper 150
presse 150
rar@@ 150
savait 150
tombe 150
$ 149
1,@@ 149
17 149
Asie 149
Se@@ 149
cent@@ 149
clo@@ 149
cuis@@ 149
diagno@@ 149
déchets 149
exposition 149
investiss@@ 149
mètre 149
perc@@ 149
perman@@ 149
perspective 149
remarquable 149
ressembl@@ 149
sai@@ 149
secteur 149
suffisamment 149
terr@@ 149
usine 149
vide 149
Californie 148
O 148
ON@@ 148
ajouter 148
capacités 148
ce@@ 148
chacune 148
conç@@ 148
devenus 148
dynamique 148
enseignants 148
hau@@ 148
ind@@ 148
individu 148
jambes 148
parten@@ 148
présence 148
tels 148
400 147
SIDA 147
ancien 147
ange 147
aveu@@ 147
cadre 147
champ 147
contient 147
ecteur 147
extrê@@ 147
forment 147
grippe 147
maths 147
pein@@ 147
regar@@ 147
rejo@@ 147
sses 147
Premi@@ 146
Université 146
augmenter 146
dirais 146
débat 146
elle-même 146
erais 146
frag@@ 146
grand@@ 146
his@@ 146
ks 146
lettres 146
médicament 146
président 146
ressemblent 146
risques 146
Bu@@ 145
St@@ 145
assurer 145
atrice 145
avez-vous 145
biologique 145
coûte 145
destin@@ 145
envoyé 145
formidable 145
ingénieurs 145
isés 145
mine 145
nourr@@ 145
nous-mêmes 145
princip@@ 145
radic@@ 145
rues 145
simul@@ 145
survivre 145
tox@@ 145
visite 145
10@@ 144
Bi@@ 144
Cependant 144
De@@ 144
Son 144
arrivée 144
caractéristiques 144
compli@@ 144
compliqué 144
connais 144
connexion 144
conversation 144
ert 144
galaxies 144
gues 144
hô@@ 144
impressionn@@ 144
of 144
ologie 144
pouv@@ 144
principes 144
requ@@ 144
reti@@ 144
sensi@@ 144
étudié 144
Ap@@ 143
Moy@@ 143
Votre 143
angle 143
avancer 143
beaux 143
ch 143
classique 143
compétences 143
connecter 143
conver@@ 143
danse 143
de-@@ 143
gle 143
langues 143
maisons 143
mauvaises 143
membre 143
mettons 143
ot 143
souches 143
ule 143
étiez 143
Orient 142
Uni@@ 142
affir@@ 142
aisse 142
amené 142
appelait 142
bruit 142
contraire 142
désir 142
effon@@ 142
fer 142
ides 142
montagne 142
mène 142
responsable 142
revient 142
semblent 142
siè@@ 142
tir 142
Parfois 141
Pren@@ 141
Vi@@ 141
agriculture 141
amen@@ 141
appareils 141
ayez 141
batt@@ 141
caus@@ 141
chauff@@ 141
collabor@@ 141
communiquer 141
da 141
existence 141
fasse 141
fou 141
ises 141
ision 141
lar@@ 141
malgré 141
morale 141
pers@@ 141
portables 141
protection 141
puisque 141
somme 141
ètes 141
At@@ 140
For@@ 140
appr@@ 140
apprennent 140
bur@@ 140
concep@@ 140
courbe 140
doigt 140
débarr@@ 140
entrée 140
ez-@@ 140
flot@@ 140
fran@@ 140
gne 140
ila 140
ingénierie 140
musée 140
portée 140
possibles 140
précis 140
ri 140
régions 140
stimul@@ 140
tenu 140
terror@@ 140
tes-vous 140
titre 140
téléphones 140
va@@ 140
ël 140
appu@@ 139
augmentation 139
aurons 139
catég@@ 139
consiste 139
dangereux 139
dizaines 139
dy 139
envoy@@ 139
fau@@ 139
fonctionnent 139
gent 139
ion 139
itaires 139
itement 139
ker 139
maî@@ 139
merveill@@ 139
mique 139
molécule 139
oeil 139
parlait 139
pont 139
possède 139
protéines 139
remar@@ 139
tionnaire 139
œuvre 139
Ju@@ 138
amusant 138
auteur 138
caract@@ 138
centi@@ 138
dinosaures 138
décrit 138
imprim@@ 138
interprét@@ 138
jouent 138
mée 138
personnelle 138
porté 138
program@@ 138
pêche 138
septembre 138
sombre 138
suffis@@ 138
émati@@ 138
Japon 137
MS 137
ad 137
aie 137
alisme 137
allaient 137
aspects 137
aî@@ 137
cherche 137
chev@@ 137
cier 137
cir@@ 137
civilisation 137
culaire 137
enci@@ 137
explor@@ 137
morceaux 137
orb@@ 137
orm@@ 137
populaire 137
rencontre 137
soin 137
teau 137
tester 137
tissu 137
visible 137
étend@@ 137
Col@@ 136
Lu@@ 136
Nos 136
Paul 136
analyse 136
chaud 136
chirurgi@@ 136
chés 136
citoyens 136
conduire 136
fallu 136
intelligents 136
intitu@@ 136
journal 136
mation 136
minus@@ 136
personnage 136
puissante 136
rier 136
soign@@ 136
çais 136
éte@@ 136
Celu@@ 135
Hu@@ 135
Tr@@ 135
arti@@ 135
asse@@ 135
augmente 135
bouche 135
boulot 135
chaleur 135
charg@@ 135
dirait 135
direc@@ 135
doigts 135
ferme 135
franch@@ 135
gal@@ 135
habit@@ 135
meu@@ 135
obten@@ 135
ple@@ 135
quartier 135
rappeler 135
sagesse 135
san@@ 135
scol@@ 135
ther@@ 135
150 134
Dr 134
aliment@@ 134
alisé 134
assur@@ 134
aujourd 134
autonom@@ 134
bro@@ 134
conférences 134
débu@@ 134
décider 134
fonds 134
ition 134
possé@@ 134
prochain 134
profonde 134
regard@@ 134
reux 134
suppose 134
éré@@ 134
acheté 133
ast@@ 133
atoires 133
cardi@@ 133
conf@@ 133
ecteurs 133
essentiel 133
fournir 133
incroyables 133
intelligent 133
magie 133
mam@@ 133
oureux 133
pleu@@ 133
publié 133
sangu@@ 133
signifi@@ 133
vot@@ 133
vrais 133
érée 133
45 132
aitre 132
cham@@ 132
coté 132
danger 132
différemment 132
décrire 132
emploi 132
enseignement 132
eraient 132
erez 132
famili@@ 132
flux 132
géni@@ 132
gérer 132
ick 132
mille 132
musul@@ 132
méthode 132
profond@@ 132
rie 132
style 132
tin 132
vulnér@@ 132
èse 132
Fin@@ 131
National 131
Quelqu&apos; 131
Washington 131
abe 131
allum@@ 131
compl@@ 131
demandez 131
détec@@ 131
gies 131
offre 131
oir 131
penses 131
principalement 131
relle 131
récol@@ 131
soldats 131
vis 131
étés 131
Avant 130
Bar@@ 130
Pouv@@ 130
atoire 130
conten@@ 130
dence 130
empl@@ 130
employés 130
enfance 130
he@@ 130
intellectu@@ 130
itablement 130
jam@@ 130
joie 130
meurent 130
nommé 130
obtenu 130
perte 130
proches 130
quête 130
radio 130
remer@@ 130
telles 130
tours 130
umin@@ 130
île 130
X 129
algorith@@ 129
apprend 129
arrivés 129
chercheurs 129
colère 129
dig@@ 129
disponible 129
domaines 129
fie 129
lan@@ 129
liens 129
matériau 129
nourrir 129
propriété 129
ressentir 129
régime 129
sert 129
similaire 129
sortie 129
tat 129
tue 129
venez 129
viande 129
états 129
évalu@@ 129
Ah 128
chée 128
défis 128
essence 128
esses 128
faudr@@ 128
froid 128
idi@@ 128
illustr@@ 128
lentement 128
main@@ 128
migr@@ 128
mod@@ 128
mél@@ 128
plaît 128
protég@@ 128
pâ@@ 128
retourner 128
suit 128
séquence 128
3D 127
Depuis 127
M. 127
MIT 127
bande 127
convaincre 127
cycle 127
davantage 127
dessin 127
dessin@@ 127
effray@@ 127
entour@@ 127
escal@@ 127
frère 127
galaxie 127
inspir@@ 127
ira 127
ly 127
oire 127
préci@@ 127
ret@@ 127
rédu@@ 127
utilisée 127
volonté 127
économiques 127
agissent 126
aliste 126
auront 126
bactéri@@ 126
chim@@ 126
commerce 126
dia@@ 126
diction 126
diminu@@ 126
empê@@ 126
faim 126
human@@ 126
immeu@@ 126
itent 126
ley 126
littér@@ 126
manu@@ 126
mener 126
murs 126
neaux 126
organes 126
principal 126
principale 126
quez 126
retourn@@ 126
référence 126
sach@@ 126
secret 126
singes 126
sugg@@ 126
trem@@ 126
Einstein 125
Ne@@ 125
comport@@ 125
comportements 125
concer@@ 125
cortex 125
dipl@@ 125
essais 125
fera 125
grand-mère 125
investissement 125
lève 125
majeu@@ 125
ome 125
organisations 125
passage 125
prend@@ 125
rentrer 125
rê@@ 125
symp@@ 125
trag@@ 125
Mes 124
Sy@@ 124
aces 124
af@@ 124
appellent 124
atr@@ 124
aud@@ 124
command@@ 124
commun@@ 124
connaissances 124
cô@@ 124
degrés 124
duction 124
dép@@ 124
dépend 124
désert 124
fourmis 124
lettre 124
paysage 124
pensées 124
pê@@ 124
rels 124
sociales 124
travail@@ 124
équivalent 124
ésie 124
établ@@ 124
Al 123
Angleterre 123
Auc@@ 123
Charles 123
Gol@@ 123
Irak 123
activ@@ 123
anci@@ 123
belles 123
cardiaque 123
charbon 123
conflits 123
considérer 123
difficul@@ 123
disais 123
déjeuner 123
enseigner 123
essenti@@ 123
ges@@ 123
infec@@ 123
influence 123
install@@ 123
isez 123
ium 123
levé 123
leçon 123
partage@@ 123
représentent 123
stat@@ 123
terres 123
tex@@ 123
transformation 123
trique 123
vaut 123
volont@@ 123
ève 123
électriques 123
étaire 123
Hé 122
Mu@@ 122
Or@@ 122
San 122
Sou@@ 122
anti-@@ 122
attr@@ 122
complet 122
correspon@@ 122
cru@@ 122
disponibles 122
durée 122
essayez 122
fabrication 122
fenêtre 122
financ@@ 122
gs 122
intéressé 122
iquement 122
netto@@ 122
potenti@@ 122
proc@@ 122
précisément 122
queue 122
regard 122
survie 122
traverser 122
unité 122
veu@@ 122
écar@@ 122
échec 122
Juste 121
Si@@ 121
active 121
basé 121
chant@@ 121
chimie 121
climat 121
compag@@ 121
crimin@@ 121
curi@@ 121
directeur 121
dri@@ 121
esser 121
manipul@@ 121
noirs 121
omb@@ 121
onde 121
positions 121
réchauffement 121
signaux 121
sources 121
stupi@@ 121
sé 121
terres@@ 121
usage 121
Homme 120
Y 120
ait-il 120
até 120
ave 120
boul@@ 120
bâ@@ 120
cab@@ 120
commencez 120
créent 120
cur@@ 120
demain 120
dess@@ 120
drôle 120
ense@@ 120
eons 120
limite 120
mariage 120
mons 120
passés 120
recher@@ 120
réelle 120
titude 120
vêtements 120
èn@@ 120
élè@@ 120
érieur 120
600 119
Rien 119
ancienne 119
cercle 119
chaussures 119
clients 119
compren@@ 119
ed 119
effort 119
emplois 119
esc@@ 119
fémin@@ 119
illage 119
laissez-moi 119
là-dessus 119
moment-là 119
ok 119
origin@@ 119
pel@@ 119
perception 119
préserv@@ 119
recevoir 119
recycl@@ 119
sive 119
stratégie 119
tiv@@ 119
trous 119
tus 119
utilisés 119
énerg@@ 119
Bill 118
Bo@@ 118
aimons 118
all 118
araign@@ 118
avan@@ 118
bure@@ 118
chap@@ 118
cip@@ 118
clinique 118
continué 118
correctement 118
demi-@@ 118
démo@@ 118
efforts 118
erre 118
fas@@ 118
générations 118
influenc@@ 118
menace 118
navig@@ 118
quitté 118
refl@@ 118
rendent 118
riv@@ 118
réduit 118
spectac@@ 118
sse 118
surprise 118
tera 118
thérapie 118
verte 118
vieille 118
volu@@ 118
épidémie 118
-ci 117
Anderson 117
Me@@ 117
absor@@ 117
accor@@ 117
aisse@@ 117
amie 117
aéro@@ 117
bouteille 117
chiffre 117
dente 117
empêcher 117
ennem@@ 117
eur@@ 117
frontières 117
guer 117
jeter 117
mesur@@ 117
mets 117
mp@@ 117
politi@@ 117
profon@@ 117
rationn@@ 117
ressembler 117
soutenir 117
texte 117
vic@@ 117
écriture 117
197@@ 116
George 116
aisons 116
anciens 116
camp 116
comprennent 116
conséquent 116
cules 116
devrais 116
entou@@ 116
environnement@@ 116
ferait 116
fur@@ 116
honte 116
intéressantes 116
ième 116
ière 116
kil@@ 116
land 116
locaux 116
maintenir 116
musi@@ 116
national 116
noms 116
ore 116
oxy@@ 116
pointe 116
pourra 116
proté@@ 116
requins 116
richesse 116
second@@ 116
solé 116
suffit 116
terrible 116
tier 116
élimin@@ 116
évèn@@ 116
Mexique 115
Rus@@ 115
attaque 115
avantage 115
bien-être 115
composants 115
croyons 115
cs 115
découvertes 115
dévelop@@ 115
efficaces 115
embr@@ 115
euro@@ 115
existent 115
feuille 115
garde 115
initi@@ 115
labo 115
métaphore 115
nez 115
oll@@ 115
semblait 115
sexe 115
° 115
Cam@@ 114
U 114
aurions 114
considér@@ 114
dessiner 114
décennies 114
ence@@ 114
experts 114
flu@@ 114
grand-@@ 114
ha 114
iens 114
joué 114
largement 114
légèrement 114
mil@@ 114
minis@@ 114
ouvre 114
pluie 114
pousse 114
signal 114
tin@@ 114
verse 114
voulions 114
âg@@ 114
écoute 114
édi@@ 114
biens 113
bientôt 113
continent 113
céré@@ 113
dirige@@ 113
entu@@ 113
est-@@ 113
fais@@ 113
feu@@ 113
invention 113
malheureusement 113
obtient 113
particulière 113
quit@@ 113
regardent 113
reur 113
soie 113
terminer 113
travaillant 113
vélo 113
édu@@ 113
électronique 113
éter 113
ômes 113
Aus@@ 112
Deux@@ 112
accident 112
attraper 112
avi@@ 112
ceux-@@ 112
comprend 112
dd@@ 112
demandent 112
eli@@ 112
identifier 112
ige 112
joueurs 112
ka 112
leaders 112
les@@ 112
logi@@ 112
lycée 112
microbes 112
nouvel 112
participer 112
phrase 112
retrouver 112
thè@@ 112
.. 111
Am@@ 111
Ni@@ 111
aille 111
cents 111
champign@@ 111
concernant 111
contrôl@@ 111
demment 111
engagement 111
extrait 111
faç@@ 111
let 111
lut@@ 111
offrir 111
pique 111
plu@@ 111
probable 111
puissions 111
quette 111
quons 111
sens@@ 111
serez 111
touche 111
trib@@ 111
tru@@ 111
via 111
vivants 111
échapp@@ 111
éclair@@ 111
édie 111
épou@@ 111
étapes 111
étonnant 111
35 110
James 110
Min@@ 110
Pensez 110
Ri@@ 110
adulte 110
ama 110
anneau 110
arm@@ 110
arrête 110
bomb@@ 110
cue@@ 110
célébr@@ 110
dieu 110
décennie 110
efficacité 110
emmener 110
esprits 110
fol@@ 110
guerres 110
har@@ 110
heureuse 110
histor@@ 110
intervie@@ 110
jardin 110
lique 110
local 110
massi@@ 110
opportunités 110
récom@@ 110
répand@@ 110
résolution 110
réussite 110
rêves 110
sign@@ 110
spectacle 110
sus 110
vé@@ 110
écri@@ 110
énormément 110
équipement 110
Occident 109
Sal@@ 109
Web 109
acteurs 109
ases 109
cass@@ 109
connue 109
dens@@ 109
extraordinaires 109
fondament@@ 109
gravité 109
mari 109
montagnes 109
ouest 109
pierre 109
pile 109
professeurs 109
prê@@ 109
restaurant 109
sil@@ 109
sul@@ 109
surveill@@ 109
tisme 109
tonnes 109
traduc@@ 109
vaste 109
ériques 109
Cl@@ 108
Indi@@ 108
Sa 108
Times 108
alimentation 108
alo@@ 108
amb@@ 108
aperçu 108
aqu@@ 108
auto@@ 108
auxquels 108
chances 108
clav@@ 108
complète 108
conseil 108
constamment 108
côtés 108
debout 108
desc@@ 108
descendre 108
direct 108
distinc@@ 108
ed@@ 108
enregist@@ 108
fe 108
fri@@ 108
gre@@ 108
générale 108
généralement 108
ill 108
inclu@@ 108
internationale 108
lumières 108
mentale 108
miro@@ 108
occu@@ 108
organisme 108
prisonn@@ 108
prouver 108
publicité 108
repas 108
régu@@ 108
sable 108
sch@@ 108
sour@@ 108
termin@@ 108
vente 108
éner@@ 108
Certaines 107
Enfin 107
Ge@@ 107
NASA 107
Permettez-moi 107
ac 107
accompl@@ 107
acier 107
actif 107
architecte 107
aux@@ 107
baiss@@ 107
be@@ 107
bibliothèque 107
budget 107
chimique 107
coch@@ 107
cole 107
connec@@ 107
définir 107
entrain@@ 107
escence 107
fail@@ 107
hon@@ 107
innov@@ 107
inspiration 107
instruments 107
mour@@ 107
nationale 107
normal 107
normale 107
objectifs 107
ouver@@ 107
parfaite 107
photographie 107
proch@@ 107
représentation 107
rouges 107
réser@@ 107
server 107
soyez 107
thème 107
théâtre 107
tim@@ 107
van@@ 107
vois@@ 107
yez 107
zo@@ 107
ènes 107
196@@ 106
Public 106
ack 106
anger 106
application 106
astronom@@ 106
ater 106
ber 106
boug@@ 106
carré 106
cheveux 106
compagnies 106
connecté 106
construc@@ 106
designers 106
devaient 106
distribution 106
essayant 106
exposé 106
faus@@ 106
foie 106
historique 106
instrument 106
inventer 106
magasin 106
métho@@ 106
note 106
oeu@@ 106
ol 106
ort 106
rais 106
refus@@ 106
reuses 106
s-je 106
serve 106
spiritu@@ 106
sum@@ 106
tax@@ 106
tension 106
témo@@ 106
victimes 106
vouloir 106
étoile 106
ôtre 106
99 105
Pu@@ 105
Soleil 105
ack@@ 105
activités 105
ander@@ 105
ash@@ 105
atis@@ 105
chirurgie 105
comprenons 105
convain@@ 105
dames 105
doul@@ 105
essai 105
fé@@ 105
ien 105
ient 105
jet 105
laissez 105
liquide 105
lun@@ 105
lune 105
mélange 105
orches@@ 105
patho@@ 105
prouv@@ 105
prét@@ 105
quatrième 105
signe 105
traits 105
tumeur 105
tées 105
vues 105
Pourtant 104
V 104
abond@@ 104
aises 104
angl@@ 104
avoc@@ 104
bel@@ 104
brou@@ 104
champs 104
comment@@ 104
contrô@@ 104
cueill@@ 104
dant 104
démonstration 104
ell 104
empre@@ 104
entrepreneurs 104
frères 104
gou@@ 104
horiz@@ 104
hydrogène 104
iz@@ 104
lour@@ 104
marketing 104
motiv@@ 104
obs@@ 104
plai@@ 104
recev@@ 104
ressemblait 104
siège 104
soutien 104
sélec@@ 104
sélection 104
transforme 104
utiles 104
PI@@ 103
Royaume-Uni 103
agissait 103
ancêtres 103
asp@@ 103
auriez 103
autrement 103
concepts 103
consac@@ 103
considère 103
correspond 103
donnée 103
déclen@@ 103
déterminer 103
exer@@ 103
exions 103
fum@@ 103
gente 103
isée 103
jaune 103
journaux 103
jug@@ 103
lon@@ 103
malade 103
oo@@ 103
peut-on 103
phase 103
philosoph@@ 103
poly@@ 103
réflexion 103
sensation 103
sucre 103
t-ils 103
tenter 103
tort 103
utilisateurs 103
éduc@@ 103
1000 102
Bro@@ 102
Darwin 102
Kenya 102
Michael 102
ancs 102
arrêté 102
artistique 102
arts 102
aus@@ 102
boite 102
carbur@@ 102
cité 102
courte 102
dirigeants 102
ent-@@ 102
fa@@ 102
gout@@ 102
horrible 102
intérêts 102
itable 102
lait 102
meur@@ 102
senti@@ 102
spon@@ 102
tiss@@ 102
travaux 102
électro@@ 102
éo@@ 102
érés 102
étranger 102
Afric@@ 101
El@@ 101
Malheureusement 101
actuel 101
ailles 101
atomes 101
aurez 101
bases 101
biolog@@ 101
business 101
chimpanzés 101
combinaison 101
disparu 101
dollar 101
fabriqué 101
fondamentalement 101
globale 101
goût 101
immense 101
infin@@ 101
infirmi@@ 101
infrastructure 101
institu@@ 101
ments 101
mobil@@ 101
modé@@ 101
nav@@ 101
ones 101
organiser 101
phon@@ 101
plani@@ 101
prenant 101
rassembler 101
résu@@ 101
sim@@ 101
spectre 101
tar@@ 101
visages 101
visuel 101
étr@@ 101
00 100
Be@@ 100
Harvard 100
Ser@@ 100
Toute 100
arme 100
bil@@ 100
collè@@ 100
compétition 100
consommateurs 100
diale 100
doubl@@ 100
fiant 100
gh@@ 100
gy@@ 100
lier 100
micro-@@ 100
motif 100
méd@@ 100
normalement 100
notes 100
ont-ils 100
plat 100
programm@@ 100
reconnaître 100
resp@@ 100
récompense 100
réunion 100
sentiments 100
spécial 100
tibles 100
tâches 100
épau@@ 100
éroï@@ 100
Facebook 99
Ki@@ 99
Lin@@ 99
The 99
alisés 99
applications 99
batterie 99
biom@@ 99
celui-là 99
centres 99
croient 99
culaires 99
cé@@ 99
deman@@ 99
double 99
démocr@@ 99
fascinant 99
fonctionnement 99
fondamentale 99
ive 99
lions 99
lié 99
là-@@ 99
là-dedans 99
mans 99
messages 99
minim@@ 99
mécanique 99
més 99
partis 99
passe-@@ 99
pensaient 99
physiques 99
rempli@@ 99
respi@@ 99
rétro@@ 99
sel 99
tais 99
venons 99
Los 98
New@@ 98
Tur@@ 98
adapter 98
ami@@ 98
ana 98
axe 98
bie 98
bénéfici@@ 98
cheval 98
conscient 98
emprun@@ 98
exprimer 98
facteurs 98
fonctions 98
gren@@ 98
ial 98
inspiré 98
molé@@ 98
moral 98
noy@@ 98
ouverte 98
ouverture 98
plier 98
quet 98
rè@@ 98
sophis@@ 98
sorti@@ 98
stes 98
sûrement 98
triste 98
up@@ 98
vous-même 98
véhicule 98
équi@@ 98
évo@@ 98
2008 97
75 97
Big 97
Bonjour 97
Du 97
To@@ 97
berg 97
bill@@ 97
cen@@ 97
collaboration 97
combus@@ 97
couverture 97
date 97
donnez 97
dor@@ 97
evoir 97
grou@@ 97
hyper@@ 97
iment 97
intes 97
itaux 97
limit@@ 97
longues 97
lè@@ 97
magique 97
maman 97
modernes 97
nie 97
négoci@@ 97
omé@@ 97
onique 97
parlant 97
parole 97
primer 97
quitter 97
rang@@ 97
rayons 97
rivière 97
soudain 97
stiques 97
till@@ 97
ving@@ 97
épi@@ 97
œ@@ 97
Nouv@@ 96
Trois 96
aimer 96
auprès 96
conclure 96
corruption 96
dat 96
den 96
excep@@ 96
habitants 96
investir 96
longueur 96
manifes@@ 96
moteurs 96
music@@ 96
métal 96
parlez 96
partag@@ 96
pingouins 96
présenté 96
quasiment 96
rappel@@ 96
sculp@@ 96
sif 96
terminé 96
toit 96
tom@@ 96
utilisez 96
utilisées 96
v 96
écras@@ 96
17@@ 95
Chac@@ 95
Oc@@ 95
accompli@@ 95
agréable 95
appliquer 95
aque 95
ballon 95
cependant 95
conclusion 95
dia 95
démi@@ 95
dî@@ 95
endu 95
fam@@ 95
génie 95
imm@@ 95
ingénieur 95
internation@@ 95
interro@@ 95
magnifiques 95
monté 95
média 95
médical 95
passée 95
photographi@@ 95
poss@@ 95
prends 95
privil@@ 95
préoccup@@ 95
se-@@ 95
sérieusement 95
total 95
traitements 95
usement 95
vention 95
érie 95
érées 95
21 94
Dan 94
Gen@@ 94
Islam 94
Mil@@ 94
Pacifique 94
Thomas 94
aident 94
annivers@@ 94
apporté 94
ards 94
aver@@ 94
bleue 94
capital 94
chute 94
coûts 94
curr@@ 94
dam@@ 94
destruction 94
dus 94
engager 94
fant@@ 94
fermi@@ 94
générer 94
implique 94
lutte 94
ly@@ 94
magné@@ 94
maj@@ 94
mous@@ 94
nations 94
nécessaires 94
oeuvre 94
oniques 94
out 94
ouvri@@ 94
parc 94
personnages 94
plas@@ 94
probabilité 94
quantités 94
rav@@ 94
rel 94
responsables 94
retrouve 94
reuse 94
rions-nous 94
sac 94
schéma 94
sieur 94
spati@@ 94
spécifique 94
suppos@@ 94
traver@@ 94
user 94
visibles 94
échange 94
évoluer 94
ôle 94
He@@ 93
affect@@ 93
aidé 93
aliments 93
alisée 93
bataille 93
chons 93
circul@@ 93
comprends 93
croyez 93
dre@@ 93
explication 93
expos@@ 93
extraire 93
ez-moi 93
frustr@@ 93
grandir 93
illé 93
invisible 93
japon@@ 93
montrant 93
opérations 93
ordinaire 93
pertin@@ 93
pourcentage 93
pp@@ 93
prior@@ 93
quelques-uns 93
relativement 93
religions 93
supplémentaires 93
syst@@ 93
tandis 93
tats 93
technologique 93
tien 93
tissement 93
voisins 93
véhicules 93
Ben 92
F 92
abil@@ 92
aborder 92
accumul@@ 92
appropri@@ 92
attrap@@ 92
authenti@@ 92
bab@@ 92
baisse 92
britanni@@ 92
chers 92
conséquence 92
den@@ 92
dessins 92
facteur 92
fiée 92
fossiles 92
frais 92
grap@@ 92
génétiques 92
hauteur 92
ingré@@ 92
inno@@ 92
interagir 92
ith 92
magazine 92
mesures 92
oiseau 92
ous@@ 92
partenaires 92
pic@@ 92
placer 92
retraite 92
rup@@ 92
situations 92
souffrance 92
suggère 92
surpris 92
tente 92
têtes 92
vie@@ 92
çait 92
ètent 92
érir 92
Allem@@ 91
Jusqu&apos; 91
apr@@ 91
basée 91
cess@@ 91
condition 91
empath@@ 91
ens@@ 91
ense 91
entends 91
exécu@@ 91
foi 91
gique 91
intelli@@ 91
jeu@@ 91
lâ@@ 91
natu@@ 91
nombres 91
nuclé@@ 91
ombre 91
poign@@ 91
pri@@ 91
prés@@ 91
ramener 91
respec@@ 91
restent 91
réussir 91
surprenant 91
tenant 91
tissus 91
volume 91
vote 91
établir 91
éthique 91
étro@@ 91
Ph@@ 90
Steve 90
Vir@@ 90
Wh@@ 90
avons-nous 90
centaine 90
chefs 90
connus 90
crime 90
créée 90
cyber@@ 90
discussion 90
explos@@ 90
fondamental 90
fus@@ 90
gin@@ 90
i-même 90
lav@@ 90
leçons 90
mun@@ 90
net 90
offici@@ 90
ondes 90
oux 90
poin@@ 90
polio 90
pollution 90
prop@@ 90
respect 90
robo@@ 90
réparer 90
similaires 90
surpren@@ 90
sym@@ 90
sympa 90
sédu@@ 90
19 89
Iran 89
Regar@@ 89
Robert 89
cogni@@ 89
color@@ 89
due 89
ext@@ 89
gramme 89
mes-@@ 89
mobile 89
ographi@@ 89
pensions 89
phénom@@ 89
respir@@ 89
scop@@ 89
souvenir 89
ster 89
straté@@ 89
séri@@ 89
tables 89
tible 89
tie 89
toile 89
tradition 89
traite 89
visions 89
ôt 89
21@@ 88
Du@@ 88
Man@@ 88
assi@@ 88
aur@@ 88
carto@@ 88
dise 88
ern@@ 88
fice 88
hôp@@ 88
infanti@@ 88
kin@@ 88
lou@@ 88
mage 88
peti@@ 88
photograp@@ 88
pir@@ 88
poche 88
sty@@ 88
toil@@ 88
transport 88
tric@@ 88
uments 88
venti@@ 88
vibr@@ 88
villages 88
voire 88
émis@@ 88
“ 88
Ess@@ 87
IR@@ 87
ars 87
canc@@ 87
ham@@ 87
interaction 87
intr@@ 87
rep@@ 87
… 87
2,@@ 86
Angeles 86
Canada 86
Francisco 86
Gal@@ 86
H 86
Pakistan 86
Pal@@ 86
TEDx@@ 86
aper@@ 86
articles 86
biles 86
commercial 86
cu 86
diplom@@ 86
dition 86
décid@@ 86
ep@@ 86
fem@@ 86
glob@@ 86
interface 86
intervention 86
lit@@ 86
lumin@@ 86
motivation 86
odes 86
org@@ 86
proto@@ 86
psy@@ 86
sieurs 86
univer@@ 86
vag@@ 86
voudr@@ 86
à-@@ 86
êts 86
2007 85
aj@@ 85
analo@@ 85
appl@@ 85
attribu@@ 85
aut 85
ax@@ 85
captur@@ 85
circulation 85
environn@@ 85
explosion 85
gig@@ 85
global 85
imagine 85
inspi@@ 85
itage 85
mill@@ 85
pris@@ 85
pyram@@ 85
sex@@ 85
trine 85
tér@@ 85
” 85
Cro@@ 84
Grand 84
Je@@ 84
Ko@@ 84
Sch@@ 84
Tro@@ 84
altitude 84
by 84
comb@@ 84
dispos@@ 84
décl@@ 84
ela 84
eue 84
fronti@@ 84
gestion 84
intellig@@ 84
just@@ 84
orie 84
plans 84
profit 84
ramen@@ 84
reu@@ 84
scanner 84
situ@@ 84
tis 84
trop@@ 84
Por@@ 83
Ste@@ 83
Twitter 83
antages 83
apo@@ 83
ash 83
dimension 83
eh 83
exploration 83
fiques 83
ky@@ 83
lab@@ 83
marin 83
nel 83
neur@@ 83
quali@@ 83
silence 83
simplic@@ 83
spir@@ 83
yl@@ 83
éma 83
Chicago 82
YouTube 82
ancer 82
assu@@ 82
enture 82
famil@@ 82
logues 82
ordin@@ 82
parall@@ 82
pons 82
press@@ 82
prototype 82
roy@@ 82
ze 82
AR@@ 81
Ab@@ 81
Haw@@ 81
Ros@@ 81
Sar@@ 81
agues 81
atre 81
bot@@ 81
chin@@ 81
compr@@ 81
consul@@ 81
cul 81
dies 81
far@@ 81
ff 81
fices 81
foc@@ 81
if 81
intu@@ 81
mus@@ 81
ney 81
propose 81
trac@@ 81
ws 81
ço@@ 81
œur 81
Austral@@ 80
France 80
Union 80
ba 80
blog 80
cat@@ 80
central 80
client 80
danger@@ 80
diag@@ 80
distin@@ 80
eries 80
estation 80
exponenti@@ 80
gras 80
impul@@ 80
ina 80
jour@@ 80
lation 80
ling 80
pes@@ 80
poli@@ 80
pond 80
prosp@@ 80
quan@@ 80
rare 80
rions 80
ritu@@ 80
yp@@ 80
équip@@ 80
— 80
65 79
Bl@@ 79
Boston 79
Pe@@ 79
Pl@@ 79
San@@ 79
aches 79
ation@@ 79
camér@@ 79
chocol@@ 79
cide 79
combat 79
conduc@@ 79
denti@@ 79
ectu@@ 79
hydro@@ 79
labor@@ 79
long@@ 79
pati@@ 79
pollen 79
ridicule 79
technologi@@ 79
van 79
yr@@ 79
Av@@ 78
Gro@@ 78
art@@ 78
ase 78
attend 78
boute@@ 78
courage 78
croiss@@ 78
diab@@ 78
dynam@@ 78
fantas@@ 78
intuition 78
ls 78
matéri@@ 78
observe 78
performan@@ 78
philosop@@ 78
ple 78
sat@@ 78
sit@@ 78
station 78
transition 78
transpar@@ 78
ya 78
.com 77
Apple 77
Chin@@ 77
Isra@@ 77
Nations 77
aint 77
descend 77
escope 77
eus 77
gel@@ 77
heu@@ 77
iPhone 77
illu@@ 77
innovations 77
intro@@ 77
issait 77
nation@@ 77
satellite 77
soud@@ 77
sport 77
standard 77
tal 77
tro 77
érence 77
2005 76
250 76
Fran@@ 76
Har@@ 76
Sel@@ 76
accessible 76
ario 76
candi@@ 76
chans@@ 76
delà 76
dimin@@ 76
flexi@@ 76
fusion 76
it-@@ 76
ky 76
nant 76
piano 76
propos@@ 76
reg@@ 76
sir 76
stock@@ 76
struc@@ 76
tations 76
22 75
Bush 75
SA 75
World 75
ary 75
bert 75
cha@@ 75
chron@@ 75
communi@@ 75
cosmo@@ 75
cot@@ 75
expert 75
fal@@ 75
ics 75
improvis@@ 75
lin 75
marine 75
nov@@ 75
ologues 75
populations 75
pron@@ 75
sculpture 75
util@@ 75
verts 75
xim@@ 75
1990 74
AB 74
Art 74
Cal@@ 74
Cel@@ 74
Congr@@ 74
Dev@@ 74
Phili@@ 74
Pri@@ 74
Ver@@ 74
agents 74
athan 74
auc@@ 74
camp@@ 74
caractéris@@ 74
cident 74
dau@@ 74
designer 74
div@@ 74
eux-@@ 74
expansion 74
grave 74
opinion 74
studio 74
suscep@@ 74
City 73
Juli@@ 73
Lo@@ 73
Microsoft 73
Or 73
PA 73
Wal@@ 73
atom@@ 73
blogs 73
celle-@@ 73
class@@ 73
collective 73
dures 73
démie 73
eter 73
four 73
imag@@ 73
instinc@@ 73
lat@@ 73
luc@@ 73
oppos@@ 73
otechno@@ 73
pho@@ 73
réuni@@ 73
stati@@ 73
sy@@ 73
usion 73
23 72
Oxford 72
Paris 72
Per@@ 72
Willi@@ 72
ails 72
airs 72
bom@@ 72
diam@@ 72
fav@@ 72
géné@@ 72
ki 72
lot 72
ource 72
stoc@@ 72
super-@@ 72
tempor@@ 72
tol@@ 72
wer 72
2004 71
2009 71
27 71
DH 71
Peu@@ 71
Pi@@ 71
Sim@@ 71
altern@@ 71
attitude 71
bloc@@ 71
co-@@ 71
confi@@ 71
conventi@@ 71
document@@ 71
eure 71
fabul@@ 71
glaci@@ 71
inez 71
institution 71
ital 71
laser 71
mental 71
muscles 71
my 71
ong 71
race 71
servi@@ 71
surfaces 71
tube 71
32 70
Char@@ 70
Ital@@ 70
Ke@@ 70
Mac@@ 70
Mad@@ 70
Mat@@ 70
Nobel 70
Street 70
W 70
amine 70
atri@@ 70
content 70
découv@@ 70
entation 70
exis@@ 70
goû@@ 70
grad@@ 70
logici@@ 70
matern@@ 70
naiss@@ 70
nat@@ 70
observation 70
océ@@ 70
otes 70
paradig@@ 70
performance 70
rich@@ 70
right 70
rot@@ 70
réf@@ 70
section 70
tude 70
use 70
vac@@ 70
élec@@ 70
élo@@ 70
érique 70
éth@@ 70
95 69
Coc@@ 69
Gar@@ 69
Hy@@ 69
Rob@@ 69
agno@@ 69
alternative 69
catastrophe 69
chaî@@ 69
contempor@@ 69
couver@@ 69
eures 69
ey@@ 69
facil@@ 69
fique 69
fre@@ 69
inj@@ 69
intention 69
lecture 69
manif@@ 69
muscle 69
paras@@ 69
process@@ 69
sensor@@ 69
trav@@ 69
ysi@@ 69
ètres 69
Améric@@ 68
Bible 68
Do@@ 68
ED 68
Life 68
Obama 68
Tom 68
ab 68
absence 68
alim@@ 68
bizar@@ 68
chol@@ 68
dign@@ 68
dy@@ 68
enter@@ 68
fruits 68
heureusement 68
illusion 68
interactions 68
ograph@@ 68
prési@@ 68
q 68
quar@@ 68
quelques-@@ 68
reproduction 68
sauce 68
transmission 68
00@@ 67
Ad@@ 67
BF 67
Bang 67
Som@@ 67
acts 67
causes 67
compati@@ 67
cous@@ 67
dients 67
différ@@ 67
dist@@ 67
entir 67
envelop@@ 67
ever@@ 67
finance 67
ger@@ 67
gram@@ 67
lue 67
mement 67
paraly@@ 67
prime 67
sage 67
spatial 67
territ@@ 67
ters 67
ton@@ 67
Ê@@ 67
0 66
200@@ 66
Bal@@ 66
Peter 66
Sec@@ 66
Ven@@ 66
Wat@@ 66
alphab@@ 66
argument 66
automobile 66
cid@@ 66
circuit 66
classi@@ 66
deux@@ 66
ec 66
exception 66
fiction 66
fonc@@ 66
iP@@ 66
incar@@ 66
influ@@ 66
istant 66
ko 66
once 66
particuli@@ 66
pure 66
secrets 66
talents 66
ulation 66
2006 65
2010 65
800 65
Bre@@ 65
Dis@@ 65
Hum@@ 65
Institu@@ 65
Nigeria 65
RB 65
Rwanda 65
antibio@@ 65
ata 65
audit@@ 65
bli@@ 65
civil@@ 65
curios@@ 65
déci@@ 65
fen@@ 65
gh 65
isi@@ 65
mem@@ 65
mic@@ 65
microscope 65
pollu@@ 65
pétro@@ 65
sk@@ 65
stitu@@ 65
tile 65
éb@@ 65
éro 65
Tit@@ 64
Tor@@ 64
Wil@@ 64
administr@@ 64
ani@@ 64
annu@@ 64
aspir@@ 64
astr@@ 64
commenc@@ 64
concentration 64
confir@@ 64
infrastruc@@ 64
ives 64
ki@@ 64
nouv@@ 64
ond 64
orig@@ 64
pause 64
ption 64
ridi@@ 64
sph@@ 64
wi@@ 64
Go@@ 63
Gore 63
Martin 63
Stu@@ 63
abol@@ 63
accidents 63
anz@@ 63
ape 63
cons@@ 63
contro@@ 63
globe 63
gol@@ 63
intrig@@ 63
onnes 63
option 63
répar@@ 63
simulation 63
tas@@ 63
titudes 63
w 63
yn 63
Alex@@ 62
Bur@@ 62
Flor@@ 62
Ghana 62
Moore 62
Sa@@ 62
abstr@@ 62
amin@@ 62
anatom@@ 62
auté 62
compét@@ 62
convic@@ 62
estin@@ 62
indic@@ 62
ingéni@@ 62
itu@@ 62
kilom@@ 62
leadership 62
obstacles 62
options 62
phot@@ 62
ques@@ 62
restaur@@ 62
stable 62
tun@@ 62
ures 62
26 61
Nig@@ 61
Satur@@ 61
Sau@@ 61
Stanford 61
amp 61
aves 61
ball 61
boî@@ 61
cit@@ 61
crucial 61
duc@@ 61
em 61
golf 61
horri@@ 61
héro@@ 61
id 61
mach@@ 61
mainten@@ 61
om 61
ose 61
ota 61
pig@@ 61
post-@@ 61
rab@@ 61
souh@@ 61
ty 61
195@@ 60
28 60
700 60
Antarc@@ 60
Gre@@ 60
Roc@@ 60
Rome 60
Sil@@ 60
abo@@ 60
activis@@ 60
administration 60
align@@ 60
angles 60
animation 60
anta 60
anten@@ 60
cancers 60
circuits 60
communications 60
conversations 60
dimen@@ 60
directions 60
décri@@ 60
erg@@ 60
estim@@ 60
front 60
hi 60
immédi@@ 60
lux@@ 60
mot@@ 60
occas@@ 60
on-@@ 60
probl@@ 60
restaurants 60
tech 60
15@@ 59
29 59
Chil@@ 59
Dur@@ 59
Euro@@ 59
Jer@@ 59
LA 59
Mer@@ 59
al-@@ 59
aper 59
barri@@ 59
classes 59
co 59
correc@@ 59
eg@@ 59
enz@@ 59
glamour 59
ince 59
insul@@ 59
intense 59
od 59
pois@@ 59
squ@@ 59
supplément@@ 59
toc@@ 59
ventions 59
1960 58
2001 58
47 58
Ben@@ 58
Bronx 58
Des@@ 58
ach 58
ang 58
angio@@ 58
ativ@@ 58
atures 58
chaos 58
charges 58
conv@@ 58
dir 58
erres 58
esh 58
ganda 58
hal@@ 58
halluc@@ 58
harmon@@ 58
immen@@ 58
match 58
mines 58
origami 58
parach@@ 58
persu@@ 58
pic 58
quarti@@ 58
ro 58
sement 58
stress 58
tes-@@ 58
tez-moi 58
ua 58
étu@@ 58
évol@@ 58
ï 58
&amp; 57
120 57
BC 57
Cap@@ 57
Cu@@ 57
Im@@ 57
Manhattan 57
Mor@@ 57
Nat@@ 57
Res@@ 57
War@@ 57
Wol@@ 57
agan 57
cos@@ 57
eth 57
fit 57
glo@@ 57
habitat 57
ic 57
initiative 57
let@@ 57
lose 57
mani@@ 57
maximum 57
mê@@ 57
participation 57
propag@@ 57
propor@@ 57
quanti@@ 57
sacri@@ 57
ther 57
traî@@ 57
ules 57
uses 57
voc@@ 57
yn@@ 57
2003 56
Ed@@ 56
Em@@ 56
Eri@@ 56
Her@@ 56
Ho@@ 56
Howard 56
King 56
Mark 56
Pour@@ 56
Wor@@ 56
agos 56
alle@@ 56
aps 56
ares 56
assemble 56
ato@@ 56
collection 56
composition 56
conclu@@ 56
contin@@ 56
cure 56
dilem@@ 56
discus@@ 56
désor@@ 56
exclu@@ 56
extra@@ 56
instructions 56
international 56
ission 56
lites 56
narr@@ 56
norm@@ 56
parent 56
popul@@ 56
regre@@ 56
simil@@ 56
stabil@@ 56
subst@@ 56
tle 56
traditions 56
As@@ 55
Carol@@ 55
Congo 55
KB 55
Wi@@ 55
anthropo@@ 55
ard@@ 55
atu@@ 55
cident@@ 55
concert 55
dense 55
efficac@@ 55
extinction 55
exu@@ 55
fic 55
figure 55
gang 55
gg@@ 55
lications 55
mm 55
omes 55
photo@@ 55
plo@@ 55
proposition 55
réfl@@ 55
substance 55
synchron@@ 55
tempér@@ 55
Center 54
Pan@@ 54
Ru@@ 54
SE@@ 54
Tri@@ 54
atar 54
bar 54
bel 54
citoy@@ 54
compéti@@ 54
description 54
discipline 54
escent 54
football 54
infection 54
installation 54
kins 54
land@@ 54
lo 54
massive 54
mul@@ 54
ok@@ 54
oug@@ 54
philanthro@@ 54
plic@@ 54
pos 54
sci@@ 54
sey 54
stic 54
submer@@ 54
surg@@ 54
syndrome 54
top 54
urban@@ 54
16@@ 53
GP@@ 53
II 53
Nature 53
Ray 53
Tim 53
Wikipedia 53
ald 53
ara 53
arro@@ 53
ba@@ 53
caf@@ 53
chiff@@ 53
configur@@ 53
contra@@ 53
convainc@@ 53
encourage 53
entrepreneur 53
gles 53
implications 53
itude 53
justi@@ 53
larg@@ 53
magas@@ 53
onom@@ 53
orange 53
oty@@ 53
parado@@ 53
pharmaceu@@ 53
pot 53
roman@@ 53
sel@@ 53
techn@@ 53
thérap@@ 53
we@@ 53
Atlan@@ 52
Benjamin 52
Don@@ 52
Frank 52
Islam@@ 52
Mand@@ 52
Science 52
Texas 52
Ty@@ 52
arry 52
au-@@ 52
condi@@ 52
célè@@ 52
dialogue 52
discipl@@ 52
excellent 52
gan@@ 52
ick@@ 52
infl@@ 52
mammo@@ 52
multi-@@ 52
ory 52
pin@@ 52
pun@@ 52
putation 52
rière 52
rob@@ 52
tale 52
yers 52
zz@@ 52
CA@@ 51
Cambridge 51
Kh@@ 51
La@@ 51
Ter@@ 51
Unis 51
anger@@ 51
continents 51
dge 51
essions 51
ethni@@ 51
ett 51
expressions 51
fur 51
gets 51
invas@@ 51
ish@@ 51
ke@@ 51
mouv@@ 51
original 51
ploy@@ 51
prototy@@ 51
q@@ 51
rats 51
side 51
trace 51
trau@@ 51
tum@@ 51
vê@@ 51
érences 51
Adam 50
Brown 50
Hollywood 50
Mur@@ 50
Num@@ 50
Scot@@ 50
Steven 50
Valley 50
ament 50
anxi@@ 50
ap 50
batter@@ 50
certi@@ 50
fortable 50
fron@@ 50
gation 50
imer 50
insec@@ 50
inté@@ 50
investi@@ 50
invite 50
ist 50
jau@@ 50
mir@@ 50
opar@@ 50
pit@@ 50
proportion 50
quas@@ 50
réchauff@@ 50
so 50
suc@@ 50
sures 50
til 50
tsunami 50
yo@@ 50
équili@@ 50
Bab@@ 49
Bob 49
Brian 49
Dar@@ 49
Imag@@ 49
Johnson 49
Jon@@ 49
Lad@@ 49
Mag@@ 49
My@@ 49
Wiki@@ 49
améli@@ 49
capture 49
che@@ 49
chromosome 49
cruci@@ 49
dil@@ 49
document 49
dop@@ 49
décr@@ 49
exerc@@ 49
ice 49
imes 49
itié 49
jihad 49
ony 49
pare 49
support 49
tem@@ 49
tend 49
ties 49
trois@@ 49
ts@@ 49
ut@@ 49
Ag@@ 48
Amaz@@ 48
Fr@@ 48
Global 48
Larry 48
Mus@@ 48
Stephen 48
Tony 48
accessi@@ 48
anony@@ 48
azz 48
consommat@@ 48
cricket 48
dram@@ 48
faces 48
hack@@ 48
import@@ 48
king 48
miracle 48
métap@@ 48
param@@ 48
perf@@ 48
session 48
spé@@ 48
the@@ 48
âce 48
éris@@ 48
ême 48
Feynman 47
Gand@@ 47
SW 47
Shangh@@ 47
Sm@@ 47
You@@ 47
aly@@ 47
aniel 47
bo 47
corpor@@ 47
cris@@ 47
cycles 47
dinosau@@ 47
ef 47
exac@@ 47
exper@@ 47
fabric@@ 47
for 47
hur@@ 47
itive 47
leader 47
lir 47
mas 47
neutr@@ 47
placement 47
record 47
regret 47
sep@@ 47
susp@@ 47
talent 47
well 47
z-moi 47
85 46
Earth 46
JH 46
Kevin 46
Monter@@ 46
Rem@@ 46
Rom@@ 46
She@@ 46
Sur@@ 46
any@@ 46
ban 46
bud@@ 46
bâti@@ 46
catastr@@ 46
chir@@ 46
ck 46
communaut@@ 46
compréhen@@ 46
consist@@ 46
déb@@ 46
factu@@ 46
fes@@ 46
future 46
me-@@ 46
ms 46
nutrition 46
oun@@ 46
quo@@ 46
ren 46
ries 46
sandwich 46
scann@@ 46
th 46
thu@@ 46
transc@@ 46
Abrah@@ 45
Brit@@ 45
Delhi 45
Hong 45
Intern@@ 45
Jan@@ 45
Ken@@ 45
Mas@@ 45
Pau@@ 45
Second 45
Sus@@ 45
angible 45
arrang@@ 45
audience 45
can 45
ception 45
club 45
ear@@ 45
frontal 45
grati@@ 45
je@@ 45
logo 45
ord@@ 45
perspec@@ 45
pre@@ 45
rout@@ 45
stru@@ 45
vel@@ 45
wat@@ 45
Angl@@ 44
Chr@@ 44
Jim 44
Tali@@ 44
ak 44
ball@@ 44
bin@@ 44
clim@@ 44
dar@@ 44
démocrati@@ 44
ein 44
fan 44
ination 44
jum@@ 44
las@@ 44
moy@@ 44
ois@@ 44
parking 44
pt 44
rand@@ 44
tel@@ 44
transparent 44
vo 44
week@@ 44
Arc@@ 43
C. 43
Ethiop@@ 43
Ever@@ 43
Fi@@ 43
Gi@@ 43
Hey 43
Long 43
Six 43
allo@@ 43
bec@@ 43
changes 43
chirur@@ 43
chromo@@ 43
cus@@ 43
elle-@@ 43
immer@@ 43
industries 43
ip@@ 43
isions 43
itch@@ 43
ity 43
moder@@ 43
obstac@@ 43
ode 43
ographic 43
pollin@@ 43
radical 43
red@@ 43
solu@@ 43
strai@@ 43
surviv@@ 43
up 43
way 43
Christ@@ 42
Iran@@ 42
Pres@@ 42
Tas@@ 42
agers 42
aug@@ 42
cal 42
ck@@ 42
consid@@ 42
ek 42
ep 42
er-@@ 42
exact 42
gers 42
gran@@ 42
icon 42
lot@@ 42
opin@@ 42
particu@@ 42
red 42
tils 42
top@@ 42
tw@@ 42
variation 42
Bay 41
Centr@@ 41
Homo 41
Viet@@ 41
amor@@ 41
ander 41
ationale 41
cau@@ 41
civ@@ 41
couple 41
cue 41
destruc@@ 41
dialo@@ 41
domes@@ 41
ect 41
email 41
explore 41
file 41
itures 41
lap@@ 41
lication 41
low 41
mail 41
minu@@ 41
mur@@ 41
na 41
ny 41
open@@ 41
ora 41
phant 41
rivi@@ 41
récu@@ 41
succ@@ 41
suff@@ 41
tise 41
élection 41
ément@@ 41
Arab@@ 40
Can@@ 40
Lors@@ 40
Ob@@ 40
Yor@@ 40
Z 40
atur@@ 40
bus@@ 40
connections 40
correct 40
ena 40
fli@@ 40
infr@@ 40
iture 40
loir 40
malaria 40
males 40
maxim@@ 40
nam@@ 40
permission 40
phone 40
state 40
ster@@ 40
transport@@ 40
tries 40
épo@@ 40
Arch@@ 39
Bri@@ 39
S. 39
Wow 39
colo@@ 39
dan@@ 39
ere 39
formid@@ 39
impres@@ 39
ival@@ 39
ket 39
lif@@ 39
open 39
range 39
sus@@ 39
vous-@@ 39
win@@ 39
y-@@ 39
ètement 39
Bon@@ 38
Gl@@ 38
Inter@@ 38
Tou@@ 38
abe@@ 38
ames 38
ams 38
bal 38
bit 38
entrepren@@ 38
figur@@ 38
ga@@ 38
guide 38
ieu 38
igno@@ 38
invest@@ 38
journ@@ 38
men 38
obser@@ 38
ow 38
premi@@ 38
puzzle 38
rements 38
scope 38
st 38
statis@@ 38
sub-@@ 38
ute 38
wit@@ 38
14@@ 37
Jus@@ 37
Tre@@ 37
Val@@ 37
abl@@ 37
ada 37
agnes 37
améric@@ 37
angers 37
ano 37
ays 37
band@@ 37
clip 37
coul@@ 37
distr@@ 37
endant 37
fel@@ 37
ham 37
icide 37
interview 37
miles 37
ony@@ 37
ski@@ 37
star 37
stop@@ 37
ve-@@ 37
zaines 37
Bas@@ 36
Institute 36
John@@ 36
Park 36
We@@ 36
chal@@ 36
cock@@ 36
culp@@ 36
drew 36
fine 36
fré@@ 36
grain 36
hol@@ 36
ical 36
mirac@@ 36
mit 36
more 36
négo@@ 36
radiation 36
tac@@ 36
techno@@ 36
vet@@ 36
war@@ 36
2.@@ 35
Den@@ 35
Island 35
May@@ 35
Narr@@ 35
TE@@ 35
TV 35
anny 35
at-@@ 35
ativité 35
bes@@ 35
bibli@@ 35
bits 35
crati@@ 35
effor@@ 35
ero 35
lau@@ 35
magaz@@ 35
nous-@@ 35
ols 35
orge 35
over 35
probabil@@ 35
remi@@ 35
résul@@ 35
tabl@@ 35
thes 35
tiles 35
ums 35
Eu@@ 34
Franc@@ 34
Sp@@ 34
Tu@@ 34
atin 34
chair 34
coc@@ 34
dance 34
dats 34
embarr@@ 34
ft 34
grat@@ 34
jun@@ 34
lor@@ 34
mit@@ 34
net@@ 34
onc 34
recomm@@ 34
ry@@ 34
sl@@ 34
stations 34
tical 34
ung 34
Actu@@ 33
CE@@ 33
Fri@@ 33
Ger@@ 33
Sol@@ 33
Sovi@@ 33
West 33
act 33
ands 33
bit@@ 33
bén@@ 33
cle@@ 33
compare 33
dec@@ 33
envir@@ 33
ide@@ 33
liz@@ 33
nutri@@ 33
pau@@ 33
thr@@ 33
velop@@ 33
çon 33
Egy@@ 32
Women 32
alg@@ 32
andis 32
aph@@ 32
auv@@ 32
balance 32
catastrop@@ 32
embl@@ 32
entiss@@ 32
fun@@ 32
issue 32
lets 32
liber@@ 32
mess@@ 32
mix@@ 32
opti@@ 32
respons@@ 32
ryth@@ 32
six@@ 32
standards 32
tenti@@ 32
tune 32
uck 32
ution 32
vation 32
vertes 32
vice 32
violent 32
ys 32
çu 32
ü@@ 32
‘ 32
Chi@@ 31
Chris@@ 31
ID@@ 31
Ja@@ 31
Okay 31
The@@ 31
VI@@ 31
ado@@ 31
agré@@ 31
bic@@ 31
core 31
déch@@ 31
ennent 31
extraordin@@ 31
fat@@ 31
futu@@ 31
gueur 31
her 31
ington 31
initial 31
instruc@@ 31
lies 31
relev@@ 31
truc@@ 31
umb@@ 31
voul@@ 31
ward 31
Olym@@ 30
air@@ 30
anni@@ 30
bs 30
commer@@ 30
coordin@@ 30
curité 30
ender 30
fense 30
hall 30
het@@ 30
in-@@ 30
musical 30
nar@@ 30
obs 30
ollywood 30
productive 30
pur@@ 30
reté 30
régi@@ 30
souffr@@ 30
Sci@@ 29
ational 29
cog@@ 29
cognitive 29
concre@@ 29
docum@@ 29
eck 29
espo@@ 29
foot 29
gradu@@ 29
hospit@@ 29
ich 29
ord 29
ound 29
pend@@ 29
refu@@ 29
shirt 29
stand@@ 29
sugges@@ 29
techni@@ 29
thiop@@ 29
ves@@ 29
wan@@ 29
wer@@ 29
écu@@ 29
Hou@@ 28
Hun@@ 28
Isl@@ 28
acro@@ 28
adic@@ 28
ason 28
bibliothè@@ 28
case 28
chaus@@ 28
ciper 28
conom@@ 28
copy@@ 28
del@@ 28
ers@@ 28
fru@@ 28
ken 28
nd 28
nou@@ 28
poll@@ 28
ran 28
rural 28
sit 28
spl@@ 28
tionne 28
win 28
âtre 28
Est-@@ 27
Goo@@ 27
bad@@ 27
bet 27
bile 27
by@@ 27
fossi@@ 27
ign 27
ind 27
objec@@ 27
onto 27
open-@@ 27
ors@@ 27
ow@@ 27
own 27
prin@@ 27
py@@ 27
sam@@ 27
èce 27
étab@@ 27
1.@@ 26
Iraq 26
Museum 26
Prize 26
each 26
gau@@ 26
gment 26
grade 26
icité 26
impl@@ 26
ings 26
inspire 26
ison 26
jard@@ 26
lyc@@ 26
ope 26
photograph@@ 26
planning 26
plant 26
plants 26
sky 26
stop 26
tian 26
tics 26
ush@@ 26
+ 25
East 25
Joh@@ 25
Man 25
Ori@@ 25
Pers@@ 25
School 25
South 25
ass 25
atement 25
constant 25
ero@@ 25
graph@@ 25
live 25
male 25
maz@@ 25
off 25
oper@@ 25
ouges 25
phil@@ 25
places 25
plate 25
prob@@ 25
requi@@ 25
sand@@ 25
scientifi@@ 25
strong 25
tâ@@ 25
vern@@ 25
we 25
) 24
Dav@@ 24
Green@@ 24
Sahar@@ 24
Sep@@ 24
adem@@ 24
ake 24
ches@@ 24
crip@@ 24
disponi@@ 24
een 24
ert@@ 24
ery 24
essive 24
expéri@@ 24
favorite 24
high-@@ 24
ight 24
insur@@ 24
intér@@ 24
management 24
ox@@ 24
ping 24
pingou@@ 24
ppe 24
ray 24
sh 24
tau@@ 24
Hom@@ 23
automo@@ 23
bia 23
conven@@ 23
coo@@ 23
ee 23
f-@@ 23
fir@@ 23
gin 23
heur 23
iness 23
ink 23
intuitive 23
issues 23
location 23
ness 23
no 23
of@@ 23
pharmac@@ 23
rock 23
see 23
simpl@@ 23
sis 23
spo@@ 23
stea@@ 23
survi@@ 23
tape 23
tural 23
Foundation 22
add@@ 22
aim 22
ator 22
cert@@ 22
exi@@ 22
fast 22
fe@@ 22
flo@@ 22
flu 22
food 22
gent@@ 22
hou@@ 22
key 22
mim@@ 22
nes@@ 22
nour@@ 22
ood 22
pair 22
pop 22
rapid@@ 22
résou@@ 22
scen@@ 22
tic 22
ting 22
tion@@ 22
titu@@ 22
trilli@@ 22
ury 22
vill@@ 22
ycl@@ 22
Israel 21
Mid@@ 21
NA@@ 21
Red@@ 21
als 21
aria 21
asses 21
beau@@ 21
chimpanz@@ 21
crow@@ 21
dio 21
ear 21
echno@@ 21
ford 21
get 21
intern@@ 21
istr@@ 21
ns 21
pub@@ 21
relative 21
space 21
tail 21
thro@@ 21
tor 21
trouble 21
ven 21
volon@@ 21
volution 21
woo@@ 21
-up 20
Fro@@ 20
Hai@@ 20
Rich@@ 20
aren 20
buc@@ 20
ceau 20
engage 20
ess 20
exte 20
gain 20
igh 20
im 20
ish 20
ked 20
lock 20
magni@@ 20
nets 20
phan@@ 20
records 20
show 20
tern@@ 20
wood 20
zero 20
= 19
American 19
Fe@@ 19
HI@@ 19
Now 19
Pens@@ 19
Stan@@ 19
Un@@ 19
ally 19
anda 19
aster 19
bien-@@ 19
camera 19
corn 19
day 19
ead 19
ech@@ 19
effici@@ 19
enreg@@ 19
fici@@ 19
instru@@ 19
lang@@ 19
mom@@ 19
monstr@@ 19
natur@@ 19
ograp@@ 19
olly@@ 19
phones 19
sen 19
stars 19
ston 19
tembre 19
thers 19
times 19
umul@@ 19
vul@@ 19
wr@@ 19
éto@@ 19
ë 19
0,000 18
Go 18
On@@ 18
Swe@@ 18
University 18
angi@@ 18
cape 18
ceaux 18
combine 18
del 18
det@@ 18
drag@@ 18
ental 18
exion 18
expres@@ 18
extinc@@ 18
feedback 18
fric@@ 18
has@@ 18
igh@@ 18
jourd 18
kid@@ 18
line 18
liqui@@ 18
long-@@ 18
lors@@ 18
onal 18
ridicul@@ 18
sag@@ 18
scr@@ 18
seaux 18
sex 18
shop 18
suj@@ 18
to-@@ 18
west 18
¨ 18
ë@@ 18
* 17
Afgh@@ 17
Pak@@ 17
Project 17
Roy@@ 17
State 17
Tal@@ 17
atmo@@ 17
avail@@ 17
bble 17
clu@@ 17
coff@@ 17
compu@@ 17
dament@@ 17
ding 17
eils 17
hot@@ 17
liver 17
mile 17
moment-@@ 17
ops 17
othè@@ 17
particul@@ 17
préhen@@ 17
ram 17
sing@@ 17
wh@@ 17
á@@ 17
êt 17
ö@@ 17
™ 17
( 16
DP 16
Ira@@ 16
Royau@@ 16
Stre@@ 16
Sun 16
U.@@ 16
an-@@ 16
cellent 16
ech 16
eral 16
got 16
ian 16
ids 16
intell@@ 16
issu@@ 16
istan 16
language 16
lem 16
libr@@ 16
major@@ 16
media 16
mente 16
motion 16
mémo@@ 16
ount@@ 16
person@@ 16
pon 16
probab@@ 16
shall 16
sw@@ 16
² 16
Â@@ 16
èces 16
,000 15
Angel@@ 15
Bank 15
British 15
One 15
Tw@@ 15
acks 15
challenge 15
clou@@ 15
com 15
cript 15
dad 15
digital 15
divi@@ 15
eras 15
ere@@ 15
invol@@ 15
ja@@ 15
jà 15
lent@@ 15
mau@@ 15
osau@@ 15
oth 15
parts 15
sia 15
smar@@ 15
thy 15
ull 15
wn 15
CO@@ 14
Ear@@ 14
Is@@ 14
Talk 14
aign@@ 14
ancy 14
ath 14
biz@@ 14
blu@@ 14
cellu@@ 14
current 14
descri@@ 14
designs 14
elop@@ 14
entôt 14
ety 14
fortu@@ 14
gall@@ 14
ine@@ 14
look 14
lots 14
lym@@ 14
mater@@ 14
ners 14
nies 14
night 14
oral 14
organ 14
ould 14
pull 14
ques-@@ 14
rain 14
ree 14
roll 14
spr@@ 14
star@@ 14
stream 14
than 14
themati@@ 14
trad@@ 14
transi@@ 14
vidé@@ 14
zoom 14
Austr@@ 13
Great 13
aid 13
ast 13
back 13
ben@@ 13
boy 13
but@@ 13
communic@@ 13
complex@@ 13
craft 13
ders 13
design@@ 13
diffic@@ 13
eld 13
figures 13
job 13
ld 13
mark@@ 13
mate 13
med 13
model 13
monit@@ 13
old 13
pen 13
plane 13
provi@@ 13
rain@@ 13
scar@@ 13
sente 13
series 13
slide 13
ss 13
sto@@ 13
strat@@ 13
stre@@ 13
tice 13
trade 13
tual 13
ust 13
video 13
Del@@ 12
Inst@@ 12
K. 12
Mexic@@ 12
My 12
Univers@@ 12
addition 12
adul@@ 12
anthro@@ 12
box@@ 12
cases 12
child 12
cidents 12
connection 12
consum@@ 12
dependent 12
ese 12
evin 12
ew 12
field 12
fore@@ 12
head 12
histo@@ 12
ident 12
infir@@ 12
master 12
ministr@@ 12
put 12
sell 12
shi@@ 12
sho@@ 12
sion@@ 12
sters 12
stom@@ 12
stone 12
ten 12
value 12
war 12
water 12
web@@ 12
&apos;@@ 11
0-@@ 11
10,000 11
5,000 11
@ 11
AD@@ 11
Bra@@ 11
India 11
Q 11
Uni 11
We 11
alth 11
any 11
are@@ 11
champ@@ 11
derni@@ 11
ducation 11
déjeu@@ 11
démonstr@@ 11
eling 11
giving 11
hero 11
hore 11
insi@@ 11
instr@@ 11
isco 11
kes 11
lad@@ 11
lec@@ 11
loo@@ 11
new@@ 11
nul@@ 11
other@@ 11
pedia 11
rase 11
rich 11
set 11
thal 11
tors 11
work 11
è 11
♪ 11
America 10
Don 10
HIV 10
NA 10
Scho@@ 10
Stat@@ 10
ags 10
alive 10
bone 10
box 10
bright 10
changing 10
civil 10
come 10
consu@@ 10
doub@@ 10
dra@@ 10
ectr@@ 10
eds 10
ele@@ 10
eth@@ 10
game 10
ging 10
got@@ 10
hav@@ 10
his 10
humain@@ 10
ji@@ 10
life 10
lows 10
nest 10
ome@@ 10
over@@ 10
posi@@ 10
read@@ 10
ress 10
seri@@ 10
sev@@ 10
sum 10
thémati@@ 10
uti@@ 10
wing 10
you 10
Î@@ 10
èmement 10
électri@@ 10
ñ@@ 10
́ 10
€ 10
Glo@@ 9
In 9
More 9
Ox@@ 9
alph@@ 9
angu@@ 9
clic@@ 9
célé@@ 9
dol@@ 9
down 9
drome 9
ell-@@ 9
ely 9
environ@@ 9
ering 9
ester@@ 9
facts 9
fall@@ 9
figu@@ 9
foot@@ 9
gging 9
gives 9
gram 9
grés 9
had 9
hel@@ 9
hop@@ 9
how 9
ials 9
ills 9
kind 9
lic 9
manag@@ 9
medi@@ 9
non@@ 9
oud 9
ough 9
peace 9
print 9
pros@@ 9
ready 9
ring 9
smo@@ 9
sof@@ 9
spectr@@ 9
sphere 9
tree 9
ular 9
ural 9
ush 9
usu@@ 9
vide@@ 9
véhic@@ 9
wal@@ 9
zer@@ 9
û 9
Cert@@ 8
Mexico 8
Micro@@ 8
Moo@@ 8
No 8
Shan@@ 8
Yeah 8
ago 8
ank 8
appe@@ 8
artis@@ 8
bet@@ 8
ble@@ 8
board 8
book 8
cameras 8
challenges 8
controll@@ 8
develop@@ 8
effective 8
electr@@ 8
ellow 8
empor@@ 8
expan@@ 8
extra 8
gar 8
has 8
iPh@@ 8
jud@@ 8
logy 8
low-@@ 8
low@@ 8
na@@ 8
now 8
nér@@ 8
odd 8
one-@@ 8
pend 8
people 8
peri@@ 8
pres 8
shir@@ 8
sophistic@@ 8
spi@@ 8
st-@@ 8
stand 8
stri@@ 8
sun@@ 8
tats-@@ 8
tech@@ 8
tements 8
thi@@ 8
town 8
unit 8
vements 8
versus 8
very 8
wards 8
was@@ 8
wich 8
worth 8
zen 8
½ 8
à@@ 8
énor@@ 8
# 7
50,000 7
Ain@@ 7
An 7
North 7
U.S. 7
X-@@ 7
Your 7
abs@@ 7
achi@@ 7
busin@@ 7
cloud 7
conséqu@@ 7
cy 7
dai@@ 7
demo@@ 7
derson 7
dir@@ 7
ects 7
emo@@ 7
enge 7
enir 7
fun 7
give 7
graph 7
had@@ 7
hand@@ 7
hic@@ 7
him 7
hus@@ 7
ird 7
jobs 7
lik@@ 7
manufactu@@ 7
mouth 7
multiple 7
obj@@ 7
ology 7
rate 7
rid 7
ride 7
sli@@ 7
staf@@ 7
sue 7
survive 7
ustr@@ 7
valu@@ 7
wake 7
ways 7
wers 7
where 7
wind 7
write 7
£ 7
2,000 6
Afri@@ 6
Audience 6
Bron@@ 6
China 6
Every@@ 6
Ghan@@ 6
Good 6
Harv@@ 6
London 6
Thom@@ 6
United 6
ace@@ 6
acy 6
adv@@ 6
aming 6
and-@@ 6
anks 6
boo@@ 6
cars 6
conflic@@ 6
cool@@ 6
cost 6
ears 6
ector 6
efficient 6
eful 6
enjo@@ 6
equ@@ 6
exemp@@ 6
experience 6
fish 6
fly 6
fortun@@ 6
ful@@ 6
gen 6
gur@@ 6
hard@@ 6
hen@@ 6
house 6
intel@@ 6
istry 6
isément 6
lea@@ 6
lines 6
ll 6
math 6
modè@@ 6
mor 6
médec@@ 6
médicam@@ 6
ning 6
nomb@@ 6
office 6
ounded 6
perfor@@ 6
ping@@ 6
pouvi@@ 6
press 6
proces@@ 6
read 6
relate 6
speech 6
stick 6
store 6
too 6
try 6
unch 6
veau 6
view 6
wai@@ 6
week 6
ycle 6
ä@@ 6
All 5
Americ@@ 5
California 5
Ce@@ 5
England 5
If 5
Marti@@ 5
N. 5
Pacific 5
This 5
Today 5
War 5
You 5
_ 5
ainment 5
alls 5
amaz@@ 5
antage 5
apprentiss@@ 5
aries 5
ating 5
ators 5
baby 5
beg@@ 5
billion 5
bir@@ 5
body 5
boys 5
bridge 5
burn 5
card 5
circu@@ 5
collap@@ 5
consider@@ 5
control 5
convers@@ 5
country 5
cover 5
disco@@ 5
eas@@ 5
elling 5
elo@@ 5
espr@@ 5
exhi@@ 5
fact 5
fair 5
feed@@ 5
gas 5
gentlem@@ 5
grid 5
him@@ 5
hold 5
home 5
ious 5
ization 5
leg@@ 5
lives 5
longer 5
love 5
lumi@@ 5
medic@@ 5
medium 5
opy 5
pers 5
phen@@ 5
phén@@ 5
possi@@ 5
promise 5
puzz@@ 5
quot@@ 5
repres@@ 5
rol@@ 5
row 5
run 5
she 5
she@@ 5
short 5
stac@@ 5
stage 5
success@@ 5
suppl@@ 5
swe@@ 5
tern 5
them@@ 5
thetic 5
throw 5
ths 5
tidi@@ 5
tribu@@ 5
tric 5
under@@ 5
wel@@ 5
á 5
ã@@ 5
æ@@ 5
ô 5
ȇ@@ 5
1,000 4
Are 4
Beau@@ 4
English 4
For 4
French 4
IT 4
It 4
Lon@@ 4
Paci@@ 4
People 4
Tex@@ 4
They 4
Twit@@ 4
Western 4
When 4
Wom@@ 4
Yes 4
`@@ 4
add 4
arian 4
atrième 4
bird 4
bling 4
brah@@ 4
chil@@ 4
chrom@@ 4
clas@@ 4
click 4
computing 4
defin@@ 4
differ@@ 4
diffé@@ 4
dren 4
eah 4
elec@@ 4
emer@@ 4
enthou@@ 4
ergy 4
estern 4
etry 4
evolution 4
experim@@ 4
express 4
gene 4
ghts 4
hap@@ 4
high 4
hosp@@ 4
ily 4
impro@@ 4
interes@@ 4
ior 4
ities 4
lem@@ 4
lt 4
may@@ 4
meeting 4
mention 4
miss@@ 4
mément 4
occur@@ 4
okay 4
omen@@ 4
online 4
orrow 4
ounds 4
ources 4
paig@@ 4
pain@@ 4
paravant 4
percent 4
plann@@ 4
play@@ 4
process 4
profess@@ 4
raise 4
ried 4
rough@@ 4
same 4
shows 4
sian 4
sorts 4
speci@@ 4
speed 4
spring 4
stor@@ 4
surr@@ 4
talk 4
that 4
tradi@@ 4
tum 4
uch 4
urban 4
urch 4
ved 4
walk 4
wid@@ 4
wis@@ 4
with 4
works 4
your 4
® 4
0s 3
100,000 3
And 3
As 3
Chic@@ 3
God 3
IDS 3
Is 3
Look 3
Main@@ 3
Micha@@ 3
Middle 3
Of 3
Publi@@ 3
Take 3
Wash@@ 3
What 3
about 3
acter@@ 3
adver@@ 3
ainst 3
aliz@@ 3
anding 3
apes 3
ated 3
atic 3
ause 3
back@@ 3
band 3
bank 3
best 3
big 3
block 3
building 3
ching 3
cipl@@ 3
city 3
conference 3
consi@@ 3
dership 3
divers@@ 3
dle 3
dn 3
dog 3
done 3
dru@@ 3
dum@@ 3
econom@@ 3
efs 3
else 3
erve 3
example 3
far 3
fashi@@ 3
fire 3
fix 3
ful 3
gency 3
girl 3
good 3
green 3
ground 3
group 3
hand 3
happ@@ 3
hard 3
hun@@ 3
instance 3
ishing 3
isten 3
ited 3
ize 3
kers 3
langu@@ 3
law@@ 3
list 3
maladi@@ 3
mark 3
marriage 3
nee@@ 3
new 3
news 3
not 3
notice 3
ods 3
onic 3
only 3
opportun@@ 3
ough@@ 3
ounc@@ 3
ound@@ 3
pack 3
pharm@@ 3
pie@@ 3
piece 3
poni@@ 3
possibil@@ 3
pping 3
pret@@ 3
price 3
project 3
prun@@ 3
r. 3
regi@@ 3
relation@@ 3
relevant 3
remment 3
riage 3
rise 3
river 3
role 3
saf@@ 3
sat 3
scene 3
set@@ 3
single 3
sitting 3
some 3
sop@@ 3
souv@@ 3
spot 3
square 3
standing 3
status 3
ste@@ 3
stem 3
stic@@ 3
stories 3
street 3
tea@@ 3
team 3
tionary 3
tom 3
tory 3
traffic 3
trip 3
tsunam@@ 3
ulf 3
victi@@ 3
videos 3
wall 3
want 3
will 3
women 3
wor@@ 3
 3
Ç@@ 3
ù 3
ú 3
00,000 2
3,000 2
Africa 2
Amer@@ 2
At 2
But 2
Califor@@ 2
Come 2
DNA 2
Do 2
Europe@@ 2
Everybody 2
Face@@ 2
Fren@@ 2
Have 2
Here 2
How@@ 2
Indian 2
Just 2
Like 2
Lond@@ 2
Not 2
Right 2
There 2
Think 2
To 2
With 2
^ 2
acking 2
afford 2
aging 2
akes 2
anced 2
answer 2
apping 2
argu@@ 2
artic@@ 2
ask 2
aster@@ 2
atory 2
away 2
bed 2
bed@@ 2
better 2
bly 2
boat 2
born 2
bottom 2
built 2
call@@ 2
care 2
celui-@@ 2
centage 2
center 2
challeng@@ 2
chec@@ 2
chic@@ 2
circ@@ 2
cket 2
class 2
companies 2
compas@@ 2
cord 2
coun@@ 2
crazy 2
creation 2
creature 2
custom@@ 2
deter@@ 2
dings 2
dom 2
dream 2
drug 2
dément 2
earing 2
eci@@ 2
eigh@@ 2
elev@@ 2
emble 2
emis@@ 2
ency 2
environment 2
esterday 2
even 2
expect@@ 2
ext 2
extrem@@ 2
faitement 2
fat 2
feel 2
fellow 2
ference 2
fle@@ 2
focus 2
fore 2
fres@@ 2
gap 2
ged 2
genes 2
ght 2
ght-@@ 2
gir@@ 2
going 2
half 2
happy 2
head@@ 2
high@@ 2
hit 2
hour 2
immedi@@ 2
interest 2
into 2
jump 2
just 2
kly 2
late 2
lear@@ 2
led 2
less 2
light 2
made 2
maint@@ 2
major 2
make 2
map 2
matter 2
mel@@ 2
most 2
mothers 2
necess@@ 2
ned 2
nership 2
nine 2
noise 2
objects 2
ocean 2
oid 2
oke 2
oms 2
ought 2
pack@@ 2
paint 2
physic@@ 2
planes 2
play 2
pre-@@ 2
princi@@ 2
prote@@ 2
quite 2
raid 2
region 2
repe@@ 2
replic@@ 2
report 2
resources 2
rest 2
revolution 2
rights 2
room 2
scho@@ 2
school 2
sea 2
seat 2
self 2
self-@@ 2
separ@@ 2
ship 2
sias@@ 2
sister 2
sm@@ 2
sn@@ 2
software 2
spea@@ 2
steel 2
success 2
sun 2
talks 2
tats-Unis 2
ted 2
tered 2
tex 2
text 2
thern 2
thin@@ 2
thinks 2
touch 2
trick 2
tting 2
two 2
unk 2
upon 2
urity 2
veaux 2
walls 2
ween 2
whe@@ 2
why 2
wom@@ 2
word 2
world 2
world@@ 2
zes 2
¥ 2
© 2
¾ 2
È@@ 2
É 2
à-dire 2
â 2
ó@@ 2
ø@@ 2
Ė@@ 2
α@@ 2
τ@@ 2
υ@@ 2
χ@@ 2
� 2
&#@@ 1
Af@@ 1
Afghan@@ 1
Again 1
Anglet@@ 1
Antar@@ 1
European 1
Fey@@ 1
First 1
He 1
How 1
Imagine 1
Japan@@ 1
Last 1
Manhatt@@ 1
Many 1
Once 1
Permet@@ 1
Royaume-@@ 1
Rw@@ 1
So 1
States 1
That 1
These 1
Two 1
Well 1
Why 1
YouTu@@ 1
ability 1
absolu@@ 1
acceler@@ 1
actor 1
ads 1
after@@ 1
agre@@ 1
ality 1
alization 1
amed 1
amount 1
answers 1
anx@@ 1
appreci@@ 1
arm 1
arms 1
ased 1
astruc@@ 1
atest 1
aware 1
ayed 1
aying 1
bad 1
beat 1
beautiful 1
beli@@ 1
believ@@ 1
bene@@ 1
bers 1
bility 1
billi@@ 1
billions 1
bing 1
black 1
blocks 1
blood 1
books 1
brand 1
brea@@ 1
bread 1
break 1
break@@ 1
brilli@@ 1
broke 1
capac@@ 1
carbon 1
cards 1
carefully 1
cept 1
certain@@ 1
chac@@ 1
chain 1
cheap 1
children 1
cians 1
circum@@ 1
close 1
coal 1
collect 1
compan@@ 1
company 1
competition 1
confl@@ 1
constr@@ 1
context 1
corru@@ 1
cratic 1
cross@@ 1
cultural 1
cut 1
data 1
deal 1
decades 1
decide 1
ded 1
deep 1
deeply 1
definition 1
demon@@ 1
demonstr@@ 1
designing 1
desire 1
development 1
did 1
difference 1
dimensional 1
dish 1
doll@@ 1
door 1
earth 1
eat 1
ebr@@ 1
eco@@ 1
ecting 1
edge 1
eding 1
educ@@ 1
elet@@ 1
ellite 1
ems 1
endro@@ 1
enem@@ 1
eness 1
ening 1
establ@@ 1
eting 1
etting 1
eum 1
eux@@ 1
eve 1
event 1
evil 1
evol@@ 1
examples 1
experiences 1
expl@@ 1
extre@@ 1
eyes 1
fashion 1
faster 1
feel@@ 1
feeling 1
fied 1
five 1
flow 1
forest 1
forever 1
forms 1
free 1
frequ@@ 1
friend@@ 1
fuel 1
fy 1
games 1
gate 1
gave 1
gener@@ 1
generation 1
genome 1
ggle 1
ght@@ 1
giant 1
girls 1
gone 1
groups 1
gry 1
hall@@ 1
happiness 1
haven 1
heal@@ 1
hear 1
helps 1
hits 1
hole 1
horse 1
hot 1
hours 1
ians 1
icity 1
ideas 1
ided 1
illing 1
incroy@@ 1
inking 1
inning 1
insp@@ 1
inspired 1
instein 1
ism 1
iter@@ 1
jourd&apos; 1
keys 1
kno@@ 1
know 1
lab 1
lands 1
languages 1
lay 1
learn 1
left 1
legs 1
life@@ 1
ligh@@ 1
lights 1
link 1
liter@@ 1
looking 1
looks 1
makes 1
many 1
maybe 1
medical 1
meill@@ 1
ming 1
models 1
mortal@@ 1
movement 1
movies 1
music 1
name 1
natural 1
nec@@ 1
needs 1
next 1
nia 1
nice 1
nothing 1
object 1
oil 1
oning 1
organism 1
organisms 1
other 1
otre 1
particles 1
pass 1
patterns 1
pauv@@ 1
pea@@ 1
perfect 1
phen 1
plastic 1
playing 1
polic@@ 1
poor 1
potential 1
pounds 1
presence 1
present 1
pretty 1
preu@@ 1
private 1
professi@@ 1
program 1
publ@@ 1
push@@ 1
reach@@ 1
real 1
reality 1
recent 1
recor@@ 1
resol@@ 1
response 1
responsi@@ 1
risk 1
roots 1
ror 1
round 1
safe 1
say 1
schools 1
seconds 1
sed 1
see@@ 1
seen 1
send 1
sense 1
sentence 1
sequ@@ 1
sets 1
setting 1
shape 1
ships 1
shor@@ 1
shot 1
sides 1
society 1
soft 1
solar 1
soon 1
sound 1
spe@@ 1
speak 1
spectrum 1
spend 1
starting 1
story 1
sunam@@ 1
supply 1
surge@@ 1
system 1
systems 1
take 1
tane@@ 1
television 1
their 1
them 1
thin 1
through 1
timat@@ 1
tional 1
tles 1
today 1
trage@@ 1
training 1
trust 1
typic@@ 1
universe 1
university 1
vaccine 1
virtual 1
vél@@ 1
walking 1
warm@@ 1
watch 1
wave 1
wear 1
went 1
whole 1
wild 1
wings 1
wish 1
woman 1
working 1
years 1
yes 1
ying 1
your@@ 1
~ 1
 1
º@@ 1
¼ 1
Ì@@ 1
Ï 1
Ï@@ 1
Ô 1
échan@@ 1
érap@@ 1
ê 1
í@@ 1
î 1
ú@@ 1
ć 1
ň@@ 1
ō@@ 1
Œ@@ 1
š@@ 1
̐ 1
Ε@@ 1
α 1
ε@@ 1
η@@ 1
ι@@ 1
κ 1
κ@@ 1
λ@@ 1
ν@@ 1
ρ@@ 1
σ@@ 1
ω 1
ị@@ 1
你 1
葱 1
送 1
madeupword0000 0
madeupword0001 0
madeupword0002 0
madeupword0003 0
