, 176801
. 151681
the 118569
to 73003
of 69304
a 64696
and 60277
that 52945
I 48272
in 45222
is 39388
you 38247
it 37124
&apos;s 34135
we 32046
And 29160
this 25169
&quot; 21283
-- 19608
was 17552
on 17510
for 16505
are 16326
have 16119
they 15462
with 14368
can 14040
So 13296
what 13149
&apos;t 13019
? 12911
about 12851
be 12053
at 11853
as 11559
all 11181
do 10608
an 10564
there 10312
not 10274
&apos;re 10218
one 9873
It 9534
like 9375
people 9114
from 9096
so 8854
or 8798
: 8741
my 8739
but 7810
just 7806
very 7599
We 7499
our 7481
The 7478
out 7444
But 7442
these 7432
if 7353
know 7213
ing 7193
going 7081
up 6929
me 6903
by 6825
them 6754
ed 6697
he 6302
think 6216
when 6206
which 6195
because 6183
see 6161
had 6086
more 6050
us 5926
really 5925
how 5799
get 5787
your 5620
&apos;ve 5607
who 5574
would 5546
re@@ 5488
were 5485
here 5469
their 5395
This 5362
time 5274
&apos;m 5256
then 5247
world 5181
You 5143
way 5028
actually 5003
has 4936
into 4882
some 4829
don 4828
things 4804
years 4528
where 4525
now 4469
-@@ 4450
go 4430
will 4413
other 4306
want 4298
Now 4117
make 4045
could 4041
They 4019
been 3941
said 3910
thing 3807
y 3798
in@@ 3791
something 3778
right 3596
little 3536
S@@ 3515
s@@ 3477
al 3475
got 3445
two 3408
first 3395
than 3342
look 3257
no 3240
those 3228
back 3216
That 3190
say 3177
much 3151
es 3147
also 3137
e@@ 3114
his 3114
un@@ 3084
ate 3081
kind 3072
over 3065
life 3047
; 3046
work 3041
t@@ 3029
able 3016
s 2920
she 2906
take 2890
b@@ 2835
only 2826
g@@ 2819
most 2816
In 2813
What 2811
lot 2805
need 2760
t 2661
&apos;ll 2659
did 2646
many 2645
around 2639
even 2617
d@@ 2609
There 2603
new 2595
down 2577
good 2557
ation 2550
different 2546
her 2536
er 2534
come 2519
o@@ 2501
k@@ 2480
through 2460
C@@ 2457
ers 2445
p@@ 2423
put 2419
B@@ 2396
w@@ 2377
ted 2359
h@@ 2330
same 2328
&gt; 2324
&lt; 2324
transcript 2324
day 2316
Well 2311
use 2307
doing 2304
being 2295
He 2293
ated 2279
If 2261
every 2258
D@@ 2233
M@@ 2224
its 2184
f@@ 2176
l@@ 2129
er@@ 2100
A@@ 2093
called 2089
H@@ 2088
P@@ 2034
any 2005
three 2001
L@@ 1973
ts 1969
&apos;d 1963
made 1962
st@@ 1935
talk 1935
el@@ 1913
T@@ 1906
ally 1891
en@@ 1880
tell 1862
percent 1860
well 1860
o 1857
year 1845
why 1839
ting 1838
y@@ 1827
fact 1814
dis@@ 1811
r@@ 1811
as@@ 1792
ity 1772
find 1768
human 1764
p 1761
R@@ 1759
idea 1758
own 1746
ar@@ 1742
a@@ 1737
great 1736
ly 1718
on@@ 1717
A 1714
F@@ 1713
de@@ 1713
didn 1689
u@@ 1685
change 1675
last 1675
went 1673
big 1671
n@@ 1670
c@@ 1666
today 1660
k 1652
i@@ 1650
or@@ 1646
red 1635
off 1633
course 1629
thought 1629
should 1620
after 1618
E@@ 1616
al@@ 1604
place 1602
another 1596
give 1596
started 1590
N@@ 1585
di@@ 1582
end 1571
important 1571
story 1571
e 1570
bit 1568
m 1562
ad@@ 1561
show 1553
ever 1546
before 1545
G@@ 1538
system 1530
ks 1524
let 1521
start 1499
problem 1498
sh@@ 1496
ago 1489
es@@ 1489
co@@ 1485
might 1485
better 1483
part 1481
th@@ 1480
is@@ 1472
try 1468
together 1465
i 1461
water 1461
ti@@ 1460
does 1454
used 1454
ds 1452
again 1450
an@@ 1448
ch@@ 1444
never 1444
ri@@ 1440
came 1437
/ 1432
each 1429
next 1429
him 1426
K@@ 1424
ating 1417
ous 1417
em@@ 1413
technology 1400
brain 1399
age 1396
sort 1395
Because 1392
mean 1392
po@@ 1387
m@@ 1377
est 1376
am 1375
ic 1370
it@@ 1369
tr@@ 1365
few 1361
et@@ 1355
still 1354
&apos; 1351
li@@ 1340
point 1340
g 1339
looking 1339
man 1332
whole 1317
done 1313
between 1303
en 1300
ors 1298
too 1287
at@@ 1286
ex@@ 1286
long 1283
old 1271
When 1262
question 1254
doesn 1239
example 1238
understand 1235
How 1231
king 1230
v@@ 1230
ary 1228
children 1214
ations 1210
million 1209
light 1205
found 1198
ter 1195
et 1194
real 1194
O@@ 1192
J@@ 1184
ac@@ 1180
call 1180
wanted 1174
W@@ 1173
ro@@ 1172
working 1169
love 1163
le 1161
person 1160
als 1158
less 1155
away 1151
d 1151
trying 1150
live 1148
10 1145
using 1145
always 1143
believe 1143
se@@ 1141
se 1139
ag@@ 1136
data 1135
am@@ 1133
may 1130
ol@@ 1112
res@@ 1098
feel 1097
women 1090
pre@@ 1086
design 1084
four 1084
space 1082
power 1073
im@@ 1068
thinking 1057
cr@@ 1056
per@@ 1056
body 1053
took 1053
Thank 1051
create 1050
kids 1047
stuff 1039
ic@@ 1038
to@@ 1038
everything 1037
school 1037
comes 1035
I@@ 1033
country 1029
c 1028
lo@@ 1027
side 1025
tic 1025
help 1024
sp@@ 1023
be@@ 1021
sense 1019
! 1014
food 1014
One 1011
information 1011
gr@@ 1009
making 1007
ab@@ 1006
building 1005
money 1002
maybe 1001
getting 1000
op@@ 997
says 996
ent 993
future 989
These 986
means 986
play 980
ded 975
quite 973
five 972
energy 967
second 967
ding 966
Here 964
enough 961
small 958
probably 957
interesting 953
Africa 951
coming 949
bo@@ 946
j@@ 946
times 934
l 933
number 930
ine 929
talking 929
room 926
ch 924
il@@ 924
inter@@ 922
si@@ 922
become 918
con@@ 918
happened 913
best 911
She 908
ap@@ 907
ul@@ 907
ways 907
n 905
le@@ 904
left 903
tion 902
science 894
z@@ 894
dollars 892
line 888
pretty 888
b 885
ty 880
without 879
ability 878
form 876
My 873
home 871
per 871
tions 870
el 869
anything 868
20 867
ps 867
pl@@ 865
ance 861
♫ 861
goes 860
no@@ 859
set 859
case 857
build 854
move 852
pro@@ 852
seen 852
simple 852
half 849
ist 845
der 844
th 841
Why 839
ke 838
bi@@ 836
No 834
happen 832
com@@ 828
makes 828
saw 828
ves 827
across 826
x 826
ask 825
h 825
car@@ 817
such 815
pe@@ 814
ideas 810
ely 808
ia 808
social 808
do@@ 807
hand 807
’ 806
ec@@ 805
art 804
else 803
told 800
living 799
OK 797
ir@@ 795
book 794
.@@ 793
lives 793
days 792
happens 792
ve 789
str@@ 788
ho@@ 784
top 784
ans 783
computer 782
countries 782
having 781
ay 779
planet 779
car 778
Earth 777
moment 777
basically 776
care 776
problems 776
min@@ 774
ar 771
picture 771
pr@@ 770
mind 769
bl@@ 764
experience 764
3@@ 762
ses 761
wh@@ 760
te 759
U@@ 757
hard 756
bad 755
sure 754
cells 745
ked 745
ph@@ 745
inside 744
learn 744
ones 744
saying 744
Let 743
um@@ 743
asked 742
dr@@ 742
qu@@ 740
ness 739
process 739
project 739
while 738
les 737
looks 734
ates 732
later 728
ot@@ 728
50 727
cu@@ 726
ver@@ 725
fi@@ 724
high 724
w 724
child 722
ent@@ 721
All 720
V@@ 719
both 719
reason 717
ur@@ 717
As 716
billion 716
far 715
mo@@ 714
av@@ 713
om@@ 708
hi@@ 707
yet 707
nature 706
history 705
Al@@ 703
fl@@ 703
ies 703
single 703
within 701
ant 700
ative 700
possible 700
almost 699
ws 698
city 697
For 695
family 691
dec@@ 690
global 687
health 687
gu@@ 686
um 686
business 685
guy 684
heard 684
over@@ 683
universe 683
New 681
piece 681
de 680
bring 679
looked 679
ment 679
once 679
... 677
young 677
cl@@ 676
six 676
wrong 674
beautiful 673
su@@ 671
ess 669
men 669
0s 668
ev@@ 668
tri@@ 667
nothing 666
places 666
act 665
e-@@ 665
imagine 664
ain 661
already 661
land 661
true 661
couple 660
ics 659
matter 656
read 656
months 654
works 654
hope 653
keep 652
often 652
video 652
India 651
answer 650
mon@@ 650
order 650
me@@ 647
sub@@ 647
face 643
God 642
re 642
community 641
species 640
whether 640
group 633
ass@@ 632
music 632
ter@@ 630
head 627
ms 626
taking 626
level 623
4@@ 622
words 622
gets 621
cancer 620
ings 620
kinds 620
TED 618
amazing 616
led 616
open 616
everybody 614
language 614
United 611
remember 611
ons 610
built 609
go@@ 609
stories 609
30 607
for@@ 607
itself 607
control 605
though 605
trans@@ 602
under 602
the@@ 601
myself 599
ourselves 599
house 598
turn 597
someone 594
ful 591
completely 590
until 587
ling 585
des@@ 584
happening 584
pi@@ 583
woman 583
ce 582
turns 581
ical 580
Y@@ 579
br@@ 579
somebody 578
In@@ 575
her@@ 575
night 575
run 575
word 575
mother 574
bu@@ 573
son 573
ge@@ 572
gen@@ 572
mar@@ 572
Then 571
research 571
ator 570
must 569
d-@@ 568
fe@@ 568
decided 567
public 567
ed@@ 565
gi@@ 565
heart 565
job 565
minutes 565
States 564
exactly 564
mis@@ 564
isn 563
since 563
front 562
100 561
view 560
wasn 560
ence 559
ets 559
company 558
figure 558
ou@@ 558
ters 558
Internet 557
guys 557
happy 556
model 556
ne@@ 556
els 555
particular 555
America 554
gs 554
state 554
huge 553
ite 553
so@@ 553
ge 550
learned 550
war 550
ice 549
animals 548
ea@@ 548
ving 548
ill 547
Oh 545
fish 545
hear 545
rather 545
air 541
te@@ 541
education 540
par@@ 540
des 539
government 538
ism 538
stop 538
large 537
name 537
environment 534
end@@ 532
disease 531
ni@@ 531
sk@@ 531
hours 530
moving 530
shows 530
game 529
themselves 528
won 528
dy 527
ma@@ 527
har@@ 525
out@@ 525
share 525
along 524
der@@ 524
tive 523
1@@ 522
study 522
American 521
systems 521
lots 520
couldn 519
created 519
natural 519
oil 519
Okay 518
knew 518
sound 517
cell 516
early 516
students 515
under@@ 515
became 514
ci@@ 513
pres@@ 513
ties 513
phone 512
society 512
takes 512
wonderful 512
ad 511
century 510
ey 509
known 509
against 508
ear@@ 508
lin@@ 507
market 507
taken 507
worked 507
sometimes 506
vi@@ 504
&#91; 503
&#93; 503
based 503
past 503
At 502
questions 502
Ch@@ 501
ists 501
news 501
least 500
outside 500
ement 499
5@@ 498
ber 498
up@@ 497
scale 496
area 495
difference 495
ches 494
free 494
ocean 494
r 494
ra@@ 493
terms 493
wing 493
friends 490
gave 489
culture 488
tro@@ 488
third 487
turned 487
ically 485
rel@@ 484
China 483
entire 482
test 481
beginning 480
bur@@ 480
learning 480
ously 479
everyone 477
id@@ 477
thousands 477
aw@@ 474
key 474
others 474
self-@@ 474
15 473
gl@@ 473
instead 473
19@@ 471
Or 471
close 471
st 470
certain 469
bri@@ 468
fin@@ 468
machine 467
off@@ 467
ats 466
au@@ 466
il 466
pos@@ 466
seven 465
ens 464
ning 463
and@@ 462
population 462
seeing 462
t-@@ 462
tu@@ 462
York 460
ber@@ 460
size 458
finally 457
parts 457
father 456
he@@ 456
needs 456
perhaps 456
ry 454
deal 452
ery 452
cost 450
difficult 450
Wh@@ 449
tle 448
whatever 448
wi@@ 447
ker 446
lim@@ 446
grow 445
low 445
2 444
ants 444
cont@@ 444
tics 444
easy 443
An@@ 442
amount 442
during 441
gar@@ 441
powerful 441
ang@@ 440
black 440
ai@@ 439
leave 439
ot 439
image 438
man@@ 438
gh@@ 437
pu@@ 436
walk 436
ian 435
middle 434
changed 433
ended 433
ground 433
ru@@ 433
ast 432
tic@@ 432
eight 430
gone 430
S 429
Th@@ 429
buy 429
dic@@ 429
eyes 429
den 428
force 428
ins 428
feet 427
given 427
Do 426
clo@@ 426
ish 425
action 424
Is 422
air@@ 422
interested 422
ains 421
surface 421
ive 420
table 420
2@@ 419
6@@ 418
spend 417
began 416
ill@@ 416
quickly 415
yourself 415
DNA 413
economic 413
cannot 412
eat 412
evolution 412
7@@ 411
ency 411
full 410
sc@@ 410
needed 409
Ar@@ 408
ents 408
week 408
common 407
simply 406
friend 405
team 405
books 404
cities 404
forward 404
Z@@ 403
complex 403
stage 403
tried 403
film 402
hold 402
cre@@ 401
behind 400
Yeah 398
longer 397
we@@ 397
wor@@ 397
ars 396
ay@@ 396
hands 396
mi@@ 396
rest 396
dro@@ 395
ect 395
fac@@ 394
fly 394
realized 394
ther 394
humans 393
ved 393
cor@@ 391
ell 391
ns 391
rec@@ 391
20@@ 390
green 390
clear 389
ered 389
loc@@ 389
program 389
step 389
born 386
ders 386
f 386
incredible 386
sitting 386
telling 386
9@@ 385
ard 385
fun 385
local 385
media 385
write 385
People 384
behavior 384
ep@@ 384
parents 384
logy 383
opportunity 383
starting 383
Some 382
cap@@ 382
ls 382
poor 382
spent 382
ality 381
ingly 381
miles 381
8 380
ects 380
zed 380
structure 379
weeks 379
animal 378
lost 378
economy 377
field 377
growing 377
tion@@ 377
tor@@ 377
companies 376
changes 375
mu@@ 375
felt 374
mem@@ 373
reality 373
40 372
brought 372
ection 372
fo@@ 372
ing@@ 372
3 371
Mo@@ 371
Right 371
ational 371
average 371
cut 371
D 370
sing 370
die 369
feeling 369
knowledge 369
paper 369
theory 369
Re@@ 368
ected 368
met 368
sho@@ 368
Just 367
equ@@ 367
hand@@ 367
wrote 367
ble 366
developed 366
images 366
ping 366
us@@ 366
Yes 365
logical 365
ently 364
8@@ 363
World 363
ak@@ 363
either 363
speak 363
wer 363
ban@@ 362
fer@@ 362
cro@@ 361
To 360
ack 360
giving 360
personal 360
ann@@ 359
death 359
ends 359
flo@@ 359
la 359
value 359
gives 358
political 358
ying 358
U.S. 357
enti@@ 356
fast 356
growth 356
mat@@ 356
ments 356
ob@@ 356
os@@ 356
sel@@ 356
short 356
fu@@ 355
center 354
eg@@ 354
gener@@ 354
non-@@ 354
sive 354
wn 354
cul@@ 353
ize 353
scientists 353
Mar@@ 352
climate 352
produce 352
technologies 352
watch 352
ched 351
jo@@ 351
literally 351
tools 351
ze 351
Le@@ 349
areas 349
blue 349
ear 349
girl 349
id 349
por@@ 349
bottom 348
ines 348
war@@ 348
English 347
ist@@ 347
y-@@ 347
C 346
fully 346
patient 346
pay 346
playing 346
pur@@ 345
Su@@ 344
material 344
ton 344
tiny 343
St@@ 342
attention 342
discovered 342
wouldn 342
Not 341
individual 341
map 341
nice 341
sea 341
Ma@@ 340
audience 340
bro@@ 340
running 340
CA 339
challenge 338
ial 338
bed 337
ell@@ 337
understanding 337
white 337
relationship 336
ess@@ 335
seems 335
Can 334
all@@ 334
begin 334
ft 334
moved 334
ory 334
shape 334
ship 334
On 333
developing 333
board 332
computers 332
fied 332
focus 332
mine 332
morning 332
12 331
knows 331
ned 331
rules 331
changing 330
ented 330
absolutely 329
deep 329
ef 329
che@@ 328
cool 328
girls 328
movement 328
oc@@ 327
oun@@ 327
physical 327
sur@@ 327
blood 326
brea@@ 326
dark 326
ff@@ 326
generation 326
la@@ 326
talked 326
ths 326
tw@@ 326
active 325
ath@@ 325
gre@@ 325
mer 325
ta@@ 325
uses 325
1 324
acy 324
det@@ 324
allow 323
forms 323
incredibly 323
late 323
lic@@ 323
result 323
situation 322
tical 322
Co@@ 321
ash@@ 321
compassion 321
product 321
6 320
alone 320
Sh@@ 319
ace 319
box 319
died 319
ture 319
,000 318
ach@@ 318
adv@@ 318
can@@ 318
ig@@ 318
realize 318
showed 318
vision 318
4 317
creating 317
wish 317
Our 315
kin@@ 315
ances 314
hundreds 314
South 313
ators 313
millions 313
9 312
happiness 312
haven 312
involved 312
save 312
super@@ 312
ger 311
guess 311
aren 310
color 310
device 310
major 310
seem 310
Be@@ 309
available 309
cars 309
experiment 309
type 309
ut 309
becomes 308
cur@@ 308
numbers 308
stand 308
Europe 307
ce@@ 307
industry 307
solution 307
ake 306
essed 306
os 306
tur@@ 306
anyone 305
bar@@ 305
lab 305
x@@ 305
az@@ 304
designed 304
likely 304
modern 304
ther@@ 304
fall 303
mag@@ 303
patients 303
reasons 303
fun@@ 302
hun@@ 302
lived 302
putting 302
quality 302
ain@@ 301
connected 301
plants 301
rate 301
solve 301
du@@ 300
ler 300
normal 300
recently 300
ju@@ 299
support 299
hour 298
ide 298
iz@@ 298
meet 298
source 298
access 297
pictures 297
25 296
De@@ 296
hu@@ 296
onto 296
top@@ 296
ari@@ 295
lines 295
plant 295
towards 295
worth 295
ching 294
cho@@ 294
col@@ 294
dead 294
perfect 294
ser@@ 294
M 293
baby 293
digital 293
hon@@ 293
ire 293
minute 293
ty@@ 293
7 292
beyond 292
kid 292
om 292
ots 292
teach 292
tend 292
drive 291
explain 291
soon 291
ack@@ 290
bigger 290
predic@@ 290
reading 290
robot 290
aff@@ 289
ained 289
effect 289
especially 289
exp@@ 289
ici@@ 289
pattern 289
present 289
tells 289
aid 288
anybody 288
groups 288
object 288
sen@@ 288
thank 288
acks 287
class 287
writing 287
ages 286
int@@ 286
pe 286
hy@@ 285
issue 285
schools 285
starts 285
syn@@ 285
uc@@ 285
Bu@@ 284
TED@@ 284
O 283
comm@@ 283
depend@@ 283
sol@@ 283
ten@@ 283
Chinese 282
No@@ 282
chance 282
nobody 282
dri@@ 281
impact 281
resources 281
risk 281
Look 280
asking 280
door 280
ering 280
ma 280
network 280
speed 280
dly 279
kers 279
materials 279
obviously 279
res 279
scientific 279
u 279
Maybe 278
ads 278
continu@@ 278
contr@@ 278
projects 278
tor 278
bs 277
certainly 277
development 277
qui@@ 277
road 277
showing 277
sou@@ 277
80 276
Ro@@ 276
bio@@ 276
dd@@ 276
extraordinary 276
fear 276
mil@@ 276
wants 276
break 275
choice 275
cri@@ 275
potential 275
ready 275
similar 275
special 275
vers 275
5 274
Com@@ 274
Google 274
Of 274
Po@@ 274
o-@@ 274
office 274
tically 274
coun@@ 273
fr@@ 273
ure 273
ales 272
chi@@ 272
11 271
Con@@ 271
ick 271
prin@@ 271
psycho@@ 271
yes 271
approach 270
bel@@ 270
z 270
hit 269
ish@@ 269
wall 269
wind 269
By 268
ati@@ 268
bas@@ 268
lu@@ 268
measure 268
period 268
several 268
ash 267
code 267
eye 267
lose 267
ust 267
version 267
village 267
walking 267
199@@ 266
basic 266
electr@@ 266
fol@@ 266
hundred 266
ment@@ 266
micro@@ 266
squ@@ 266
tional 266
ending 265
exciting 265
games 265
ized 265
ror 265
send 265
voice 265
cer@@ 264
dem@@ 264
issues 264
objects 264
tho@@ 264
aging 263
atic 263
hom@@ 263
skin 263
0@@ 262
evidence 262
law 262
strong 262
truth 262
First 261
activity 261
bor@@ 261
medical 261
Ex@@ 260
ably 260
att@@ 260
positive 260
vis@@ 260
win@@ 260
500 259
develop 259
est@@ 259
examples 259
fil@@ 259
inv@@ 259
message 259
moral 259
movie 259
online 259
pic@@ 259
security 259
ach 258
ight 258
interest 258
ner@@ 258
comp@@ 257
further 257
ide@@ 257
mass 257
mental 257
month 257
60 256
ame 256
deli@@ 256
high-@@ 256
ke@@ 256
ky 256
named 256
nuclear 256
ow@@ 256
particularly 256
points 256
screen 256
tas@@ 256
totally 256
ities 255
mechan@@ 255
ories 255
position 255
software 255
back@@ 254
ces 254
eco@@ 254
pain@@ 254
sions 254
street 254
bul@@ 253
bunch 253
camera 253
Me@@ 252
carbon 252
cultural 252
extremely 252
nine 252
prom@@ 252
rich 252
self 252
sex 252
standing 252
success 252
200 251
G 251
em 251
foot 251
ligh@@ 251
serious 251
teacher 251
African 250
Don 250
Un@@ 250
West 250
sit 250
East 249
ah 249
anti@@ 249
follow 249
hor@@ 249
innovation 249
oper@@ 249
ped 249
sup@@ 249
Chris 248
ect@@ 248
rem@@ 248
sorts 248
sounds 248
cal@@ 247
pen@@ 247
sl@@ 247
solar 247
everywhere 246
ited 246
pain 246
Every 245
alized 245
arch@@ 245
ears 245
eu@@ 245
fire 245
journey 245
listen 245
plan 245
row 245
spread 245
arm 244
favorite 244
allowed 243
complicated 243
medicine 243
ner 243
site 243
tly 243
trees 243
biology 242
concept 242
del@@ 242
sig@@ 242
ss 242
talks 242
wife 242
goal 241
lower 241
ris@@ 241
student 241
18@@ 240
After 240
ases 240
ep 240
eventually 240
ills 240
ind@@ 240
mor@@ 240
sec@@ 240
stay 240
tors 240
Nor@@ 239
creative 239
era 239
form@@ 239
genes 239
ken 239
part@@ 239
calcul@@ 238
ey@@ 238
leaders 238
od@@ 238
products 238
sent 238
sun 238
thousand 238
was@@ 238
bacteria 237
biggest 237
buildings 237
general 237
lead 237
notice 237
reach 237
sell 237
series 237
Jo@@ 236
R 236
kes 236
my@@ 236
pan@@ 236
pick 236
pieces 236
smart 236
teachers 236
B 235
Where 235
cal 235
mer@@ 235
pas@@ 235
tool 235
tre@@ 235
tree 235
ver 235
wat@@ 235
continue 234
grand@@ 234
met@@ 234
page 234
results 234
visual 234
watching 234
Even 233
Most 233
app@@ 233
brains 233
cians 233
dance 233
faster 233
perspective 233
pped 233
price 233
18 232
Which 232
dat@@ 232
higher 232
oh 232
sw@@ 232
town 232
En@@ 231
T 231
Who 231
add 231
communities 231
main 231
ound 231
press 231
sli@@ 231
sum@@ 231
among 230
ately 230
beauty 230
content 230
deter@@ 230
expect 230
grew 230
list 230
national 230
on-@@ 230
oo@@ 230
stars 230
suddenly 230
supposed 230
touch 230
ail@@ 229
democracy 229
ember 229
log@@ 229
minds 229
response 229
stri@@ 229
bes 228
essentially 228
impossible 228
ites 228
iv@@ 228
mas@@ 228
somewhere 228
taught 228
HIV 227
architecture 227
bodies 227
bre@@ 227
clim@@ 227
crazy 227
posed 227
spo@@ 227
Li@@ 226
Par@@ 226
ams 226
conditions 226
eli@@ 226
gas 226
ste@@ 226
cause 225
engineering 225
ring 225
sal@@ 225
thers 225
ai 224
cent@@ 224
ever@@ 224
healthy 224
killed 224
military 224
models 224
nd 224
our@@ 224
poverty 224
safe 224
seconds 224
sil@@ 224
truly 224
virus 224
wait 224
above 223
cover 223
individuals 223
onal 223
shown 223
sun@@ 223
vie@@ 223
aining 222
ball 222
beings 222
educ@@ 222
fundamental 222
hospital 222
meant 222
sugges@@ 222
Ne@@ 221
crisis 221
excited 221
expensive 221
fall@@ 221
larger 221
North 220
mit 220
she@@ 220
0,000 219
a-@@ 219
ands 219
largest 219
loo@@ 219
plan@@ 219
pul@@ 219
rise 219
somehow 219
tou@@ 219
trav@@ 219
connect 218
den@@ 218
econom@@ 218
ges 218
hot 218
ony 218
peace 218
ale 217
down@@ 217
hop@@ 217
rece@@ 217
smaller 217
successful 217
written 217
For@@ 216
K 216
alive 216
ans@@ 216
cases 216
cop@@ 216
dev@@ 216
eng@@ 216
listening 216
math 216
uni@@ 216
whe@@ 216
wr@@ 216
one-@@ 215
revolution 215
song 215
violence 215
worse 215
ys 215
Bo@@ 214
eth@@ 214
famous 214
kill 214
machines 214
okay 214
ple 214
star@@ 214
tes 214
trust 214
Are 213
contribu@@ 213
physics 213
slide 213
ve@@ 213
appro@@ 212
ax@@ 212
dar@@ 212
fine 212
forth 212
genetic 212
graph@@ 212
head@@ 212
meaning 212
patterns 212
service 212
shot 212
traditional 212
wards 212
TV 211
With 211
allows 211
bat@@ 211
decisions 211
ina 211
role 211
ular 211
val@@ 211
boy 210
ences 210
except 210
finding 210
including 210
provi@@ 210
refl@@ 210
sm@@ 210
store 210
studies 210
verse 210
Ph@@ 209
drugs 209
ick@@ 209
ili@@ 209
physi@@ 209
stor@@ 209
subject 209
training 209
college 208
gotten 208
od 208
recognize 208
usually 208
context 207
dge 207
direction 207
diversity 207
eful 207
fantastic 207
integr@@ 207
sequence 207
stem 207
ster 207
temperature 207
trial 207
fer 206
ie 206
main@@ 206
organization 206
skills 206
smo@@ 206
Americans 205
David 205
Di@@ 205
E 205
Ger@@ 205
ays 205
ese 205
ger@@ 205
human@@ 205
kept 205
mile 205
pull 205
waste 205
choose 204
clu@@ 204
earlier 204
ile 204
inclu@@ 204
print 204
re-@@ 204
robots 204
see@@ 204
tra@@ 204
upon 204
&amp; 203
Pro@@ 203
fy 203
greater 203
gro@@ 203
imp@@ 203
indeed 203
insi@@ 203
prim@@ 203
region 203
scar@@ 203
sion 203
thern 203
wonder 203
0-@@ 202
5,000 202
Se@@ 202
ab 202
actual 202
after@@ 202
ass 202
critical 202
dangerous 202
doctor 202
dream 202
drug 202
duc@@ 202
ghts 202
hel@@ 202
identi@@ 202
ished 202
plastic 202
well-@@ 202
Br@@ 201
Gre@@ 201
Those 201
prot@@ 201
three-@@ 201
walked 201
Car@@ 200
conference 200
don@@ 200
eling 200
exist 200
hear@@ 200
jobs 200
acting 199
draw 199
following 199
income 199
increase 199
invented 199
lands 199
legs 199
ners 199
repres@@ 199
sing@@ 199
sky 199
solutions 199
Ac@@ 198
Mars 198
adap@@ 198
creativity 198
himself 198
ley 198
strange 198
treatment 198
understood 198
ven@@ 198
acts 197
arr@@ 197
coll@@ 197
current 197
dollar 197
dra@@ 197
explo@@ 197
range 197
remarkable 197
treat 197
Mon@@ 196
ave 196
electricity 196
please 196
teaching 196
thro@@ 196
urban 196
zing 196
War 195
ap 195
becoming 195
char@@ 195
connection 195
demonstr@@ 195
evolved 195
familiar 195
humanity 195
ise 195
nur@@ 195
older 195
slow 195
television 195
therefore 195
Per@@ 194
eless 194
enn@@ 194
fa@@ 194
ren@@ 194
transl@@ 194
ut@@ 194
John 193
Some@@ 193
anymore 193
anyway 193
celebr@@ 193
dies 193
driving 193
flying 193
hole 193
pping 193
production 193
speci@@ 193
ten 193
Another 192
Like 192
ane 192
arg@@ 192
far@@ 192
instance 192
organisms 192
oth 192
passion 192
pol@@ 192
recogni@@ 192
tom@@ 192
ail 191
ature 191
blo@@ 191
ck@@ 191
conflict 191
ere 191
ol 191
pair 191
phones 191
website 191
whose 191
wonder@@ 191
ali@@ 190
bing 190
clearly 190
dea@@ 190
immediately 190
played 190
sam@@ 190
scre@@ 190
tation 190
tru@@ 190
types 190
Col@@ 189
University 189
aware 189
cru@@ 189
decade 189
floor 189
levels 189
nor@@ 189
pt 189
record 189
stic 189
swe@@ 189
thre@@ 189
wea@@ 189
wel@@ 189
but@@ 188
etc 188
func@@ 188
ged 188
histor@@ 188
international 188
ok 188
pli@@ 188
track 188
travel 188
Imagine 187
Mus@@ 187
Web 187
adi@@ 187
assu@@ 187
atory 187
effective 187
ength 187
essing 187
final 187
flow 187
ishing 187
quar@@ 187
summer 187
City 186
Your 186
anywhere 186
ful@@ 186
magic 186
ounded 186
politics 186
ran 186
sign 186
specific 186
train 186
yeah 186
cat@@ 185
character 185
choices 185
designers 185
ff 185
survive 185
throughout 185
un 185
wed 185
ank 184
core 184
costs 184
dog 184
forces 184
function 184
meeting 184
neuro@@ 184
obvious 184
photograph 184
prof@@ 184
protect 184
provide 184
ries 184
stick 184
values 184
various 184
London 183
Western 183
chemical 183
cian 183
ived 183
logist 183
vely 183
198@@ 182
Gen@@ 182
appear 182
cas@@ 182
decision 182
discover 182
earth 182
ging 182
impro@@ 182
massive 182
sustainable 182
to-@@ 182
transform@@ 182
alization 181
ancy 181
cel@@ 181
conversation 181
gg@@ 181
itation 181
ports 181
surgery 181
Afghanistan 180
although 180
artist 180
ght 180
recor@@ 180
rights 180
scientist 180
weren 180
wit@@ 180
90 179
National 179
ade 179
babies 179
ca@@ 179
clean 179
fir@@ 179
fit 179
mod@@ 179
ols 179
policy 179
useful 179
web 179
Mc@@ 178
ables 178
ahead 178
cy@@ 178
focused 178
produced 178
progress 178
related 178
religion 178
shor@@ 178
stat@@ 178
He@@ 177
complete 177
directly 177
ening 177
esses 177
gers 177
intelligence 177
tel@@ 177
terrible 177
thetic 177
une 177
atically 176
ession 176
heat 176
lights 176
ounc@@ 176
practice 176
tered 176
Dr. 175
Two 175
ards 175
atmosphere 175
challenges 175
cold 175
complexity 175
consu@@ 175
fight 175
funny 175
hur@@ 175
leg@@ 175
performance 175
sti@@ 175
tat@@ 175
win 175
Gu@@ 174
anced 174
causes 174
date 174
enormous 174
environmental 174
flu@@ 174
hum@@ 174
mostly 174
networks 174
ori@@ 174
path 174
pressure 174
speaking 174
square 174
task 174
tures 174
vari@@ 174
zero 174
Indian 173
enting 173
fre@@ 173
freedom 173
glass 173
ink 173
inspired 173
original 173
sat 173
term 173
bon@@ 172
families 172
forest 172
ister 172
oxygen 172
sleep 172
spec@@ 172
stre@@ 172
70 171
Richard 171
atives 171
biological 171
decide 171
financial 171
legal 171
near 171
ound@@ 171
paid 171
particip@@ 171
rule 171
tivity 171
unique 171
300 170
Je@@ 170
Middle 170
birth 170
bought 170
ck 170
consider 170
construc@@ 170
feed 170
lea@@ 170
markets 170
possibly 170
race 170
rap@@ 170
To@@ 169
alis@@ 169
balance 169
below 169
bringing 169
carry 169
destro@@ 169
drop 169
eding 169
fro@@ 169
of@@ 169
pou@@ 169
rai@@ 169
some@@ 169
states 169
10,000 168
AIDS 168
author@@ 168
charge 168
chem@@ 168
exis@@ 168
fuel 168
ier 168
ir 168
iting 168
lab@@ 168
liter@@ 168
wer@@ 168
boys 167
cher 167
experiments 167
greatest 167
molecules 167
notion 167
person@@ 167
private 167
regul@@ 167
sn@@ 167
suff@@ 167
weight 167
Hey 166
His 166
Qu@@ 166
birds 166
creatures 166
doctors 166
domin@@ 166
emotional 166
hou@@ 166
ices 166
imagin@@ 166
ium 166
mobile 166
net 166
surr@@ 166
ton@@ 166
ward 166
Tur@@ 165
agree 165
capacity 165
dom@@ 165
eating 165
expected 165
governments 165
ough 165
particles 165
purpose 165
tent 165
vol@@ 165
willing 165
workers 165
P 164
behavi@@ 164
believ@@ 164
bly 164
degrees 164
evol@@ 164
fic@@ 164
hot@@ 164
low-@@ 164
programs 164
reli@@ 164
shared 164
sphere 164
stream 164
tremendous 164
two-@@ 164
al-@@ 163
apart 163
arti@@ 163
attr@@ 163
commit@@ 163
crow@@ 163
foot@@ 163
genome 163
hal@@ 163
ops 163
planets 163
shoc@@ 163
vir@@ 163
visu@@ 163
16 162
From 162
aged 162
diseases 162
event 162
land@@ 162
ong@@ 162
prepar@@ 162
rely 162
sharing 162
supply 162
tric@@ 162
waiting 162
L 161
ase 161
extra 161
flu 161
increas@@ 161
pass 161
quick 161
regi@@ 161
trouble 161
ush 161
vo@@ 161
Man 160
So@@ 160
ancient 160
career 160
compu@@ 160
corpor@@ 160
daughter 160
eas@@ 160
ecting 160
nation 160
neurons 160
possibility 160
rooms 160
sed 160
services 160
significant 160
straight 160
turning 160
twice 160
Ber@@ 159
Pr@@ 159
airs 159
basis 159
easily 159
enter 159
logists 159
multi@@ 159
ong 159
police 159
raise 159
worry 159
worst 159
-year-old 158
Rus@@ 158
Today 158
bus@@ 158
calls 158
capital 158
closer 158
communicate 158
cross@@ 158
embr@@ 158
esti@@ 158
explore 158
ext@@ 158
fri@@ 158
institutions 158
med 158
nu@@ 158
pris@@ 158
resear@@ 158
shel@@ 158
Life 157
agre@@ 157
ah@@ 157
apped 157
bran@@ 157
check 157
creates 157
effects 157
lie 157
manufactu@@ 157
mission 157
pp@@ 157
recent 157
search 157
spea@@ 157
vering 157
&apos;@@ 156
Or@@ 156
Ri@@ 156
communication 156
diagno@@ 156
eled 156
faces 156
memory 156
meters 156
ome 156
oned 156
organiz@@ 156
popular 156
wal@@ 156
wan@@ 156
Cam@@ 155
and-@@ 155
artists 155
bridge 155
definition 155
ero@@ 155
farmers 155
hea@@ 155
mountain 155
tin@@ 155
Iraq 154
alism 154
attack 154
cell@@ 154
classi@@ 154
cli@@ 154
corner 154
forget 154
formed 154
fying 154
glob@@ 154
le-@@ 154
load 154
none 154
ould 154
,@@ 153
California 153
differences 153
ght@@ 153
graph 153
loved 153
shift 153
standard 153
surprising 153
Great 152
Sy@@ 152
Ti@@ 152
achieve 152
address 152
break@@ 152
engag@@ 152
ference 152
fli@@ 152
ined 152
laun@@ 152
liber@@ 152
onic 152
photograph@@ 152
proper@@ 152
responsibility 152
rock 152
seemed 152
simul@@ 152
slightly 152
10@@ 151
14 151
Think 151
achiev@@ 151
acked 151
analy@@ 151
attemp@@ 151
bird 151
bits 151
fairly 151
gene 151
hab@@ 151
myst@@ 151
spi@@ 151
struc@@ 151
Wi@@ 150
ambi@@ 150
bomb@@ 150
direc@@ 150
gri@@ 150
hearing 150
helped 150
ious 150
necessarily 150
oes 150
passed 150
push 150
reach@@ 150
religious 150
secret 150
sold 150
star 150
techno@@ 150
timate 150
uns 150
wood 150
2,000 149
Ju@@ 149
bility 149
boat 149
collap@@ 149
elements 149
extr@@ 149
hair 149
high@@ 149
infrastructure 149
ital 149
missing 149
mom 149
pal@@ 149
port 149
prec@@ 149
symme@@ 149
197@@ 148
answers 148
colleagues 148
dying 148
helping 148
imagination 148
inf@@ 148
noticed 148
published 148
small@@ 148
ta 148
terri@@ 148
trade 148
$ 147
Pl@@ 147
bone 147
cally 147
efficient 147
elec@@ 147
neighb@@ 147
poin@@ 147
replic@@ 147
thes@@ 147
total 147
work@@ 147
196@@ 146
Asia 146
Go@@ 146
Instead 146
Many 146
actions 146
alities 146
appreci@@ 146
brings 146
capit@@ 146
cour@@ 146
devices 146
dram@@ 146
effort 146
feels 146
mal@@ 146
nov@@ 146
organic 146
rac@@ 146
scr@@ 146
soci@@ 146
structures 146
text 146
ue 146
Mi@@ 145
Mr. 145
apping 145
central 145
coffee 145
connec@@ 145
fication 145
interact 145
invol@@ 145
ion 145
istic 145
pounds 145
respon@@ 145
sely 145
societies 145
vulner@@ 145
wers 145
year-old 145
zen 145
Si@@ 144
ba@@ 144
collabor@@ 144
ests 144
figured 144
grade 144
heads 144
highly 144
ior 144
justice 144
ly@@ 144
mir@@ 144
occu@@ 144
ole 144
ought 144
reduce 144
therap@@ 144
throw 144
window 144
Hu@@ 143
Japan 143
base 143
bread 143
decades 143
discus@@ 143
expl@@ 143
fascinating 143
male 143
mes 143
moments 143
pressed 143
reg@@ 143
sev@@ 143
sick 143
tissue 143
trained 143
tries 143
tun@@ 143
Fin@@ 142
Ge@@ 142
broken 142
cket 142
covered 142
dad 142
edge 142
finished 142
igh@@ 142
knowing 142
laws 142
mp@@ 142
operation 142
pass@@ 142
ported 142
push@@ 142
rot@@ 142
spending 142
ss@@ 142
studying 142
Au@@ 141
accep@@ 141
cycle 141
differently 141
ids 141
innov@@ 141
kil@@ 141
mark@@ 141
meth@@ 141
migr@@ 141
molecule 141
ology 141
ran@@ 141
reas@@ 141
repe@@ 141
ret@@ 141
return 141
streets 141
tele@@ 141
visit 141
1,000 140
appli@@ 140
bees 140
billions 140
carto@@ 140
cratic 140
engineers 140
fix 140
helps 140
itting 140
lar@@ 140
lun@@ 140
non@@ 140
onn@@ 140
pea@@ 140
plane 140
ti 140
virtual 140
Again 139
French 139
Paul 139
alize 139
bal@@ 139
cle 139
dimensional 139
industrial 139
inten@@ 139
necessary 139
negative 139
ow 139
pers@@ 139
respect 139
reve@@ 139
suffering 139
24 138
Big 138
Bro@@ 138
adop@@ 138
benefits 138
comfortable 138
competition 138
distance 138
eness 138
leading 138
mit@@ 138
pat@@ 138
radio 138
tim@@ 138
An 137
Bas@@ 137
cam@@ 137
consum@@ 137
mothers 137
ods 137
philosoph@@ 137
quote 137
ried 137
sorry 137
steps 137
til@@ 137
tra 137
trac@@ 137
400 136
accoun@@ 136
apply 136
brand 136
broad@@ 136
chair 136
female 136
filled 136
indic@@ 136
measu@@ 136
oy@@ 136
pa@@ 136
saving 136
sens@@ 136
slowly 136
statistics 136
stopped 136
tural 136
vot@@ 136
yellow 136
Good 135
Is@@ 135
Very 135
bot@@ 135
card 135
caught 135
describe 135
desire 135
emer@@ 135
eral 135
fashion 135
fle@@ 135
galaxies 135
holding 135
intelligent 135
kee@@ 135
moves 135
nearly 135
requ@@ 135
resol@@ 135
suit 135
tech 135
uck 135
wisdom 135
1,@@ 134
Actually 134
act@@ 134
afraid 134
ased 134
benefit 134
clin@@ 134
colors 134
conduc@@ 134
confi@@ 134
fighting 134
forming 134
hard@@ 134
held 134
landscape 134
organizations 134
ours 134
park 134
pig@@ 134
shares 134
tail 134
typical 134
1.@@ 133
Sec@@ 133
art@@ 133
citizens 133
conf@@ 133
erve 133
flight 133
frequ@@ 133
inc@@ 133
ind 133
languages 133
lic 133
lying 133
moon 133
oceans 133
opened 133
responsible 133
sites 133
ush@@ 133
vast 133
virtu@@ 133
Res@@ 132
Sun 132
algorith@@ 132
aling 132
antly 132
aps 132
arily 132
background 132
cheap 132
commercial 132
degree 132
demo@@ 132
discovery 132
electric 132
engage 132
eries 132
fai@@ 132
ils 132
itable 132
jump 132
letter 132
loss 132
lt 132
meat 132
mix@@ 132
nan@@ 132
obs@@ 132
painting 132
party 132
phenomenon 132
pression 132
rol@@ 132
sem@@ 132
sle@@ 132
spon@@ 132
sudden 132
tal@@ 132
tively 132
warming 132
zer@@ 132
CO2 131
Gr@@ 131
MIT 131
Second 131
Thanks 131
activ@@ 131
ater 131
beat 131
custom@@ 131
dre@@ 131
everyday 131
ework 131
gency 131
gene@@ 131
gentlem@@ 131
placed 131
produc@@ 131
rain 131
separ@@ 131
spl@@ 131
vice 131
viruses 131
yed 131
anc@@ 130
aries 130
ation@@ 130
catch 130
cha@@ 130
circle 130
civilization 130
engine 130
events 130
facil@@ 130
mid@@ 130
pages 130
parti@@ 130
pil@@ 130
pose 130
programm@@ 130
rid 130
sters 130
thinks 130
13 129
Ste@@ 129
ags 129
aim 129
anding 129
compar@@ 129
concerned 129
conserv@@ 129
dam@@ 129
entert@@ 129
evolutionary 129
experiences 129
finger 129
fold 129
join 129
partment 129
port@@ 129
prison 129
profound 129
relationships 129
shoes 129
stuck 129
thy 129
ves@@ 129
— 129
17 128
Bi@@ 128
Tr@@ 128
acceler@@ 128
adults 128
blind 128
cent 128
cip@@ 128
creation 128
dry 128
emerg@@ 128
exhi@@ 128
failure 128
forever 128
identity 128
law@@ 128
leads 128
museum 128
noise 128
operating 128
powered 128
puts 128
soli@@ 128
strong@@ 128
th-@@ 128
truc@@ 128
ultimately 128
umin@@ 128
walls 128
Einstein 127
El@@ 127
Mal@@ 127
Once 127
Sp@@ 127
Swe@@ 127
brilliant 127
character@@ 127
count 127
damage 127
dness 127
dum@@ 127
enjoy 127
explor@@ 127
improve 127
incenti@@ 127
motiv@@ 127
mouth 127
ne 127
ographic 127
opportunities 127
perfectly 127
report 127
tens 127
wave 127
Washington 126
accur@@ 126
ague 126
amp 126
block 126
dy@@ 126
fram@@ 126
ga@@ 126
importantly 126
lesson 126
libr@@ 126
lucky 126
mel@@ 126
radi@@ 126
san@@ 126
versus 126
British 125
Min@@ 125
advantage 125
affect 125
appeared 125
article 125
aying 125
biolog@@ 125
capable 125
childhood 125
concer@@ 125
consciousness 125
crime 125
dom 125
doub@@ 125
drawing 125
ements 125
engineer 125
galaxy 125
generate 125
giant 125
heav@@ 125
ily 125
influence 125
iter@@ 125
ney 125
ome@@ 125
opposite 125
sch@@ 125
separate 125
surge@@ 125
ues 125
wearing 125
200@@ 124
Charles 124
Hum@@ 124
Sometimes 124
ama 124
angle 124
ball@@ 124
begins 124
categ@@ 124
cep@@ 124
cou@@ 124
designer 124
designing 124
dimensions 124
efs 124
entirely 124
estim@@ 124
fill 124
frag@@ 124
fur@@ 124
gradu@@ 124
jum@@ 124
leaving 124
mathematics 124
mus@@ 124
promise 124
sav@@ 124
set@@ 124
spaces 124
thr@@ 124
treated 124
weapons 124
Pal@@ 123
San 123
airplane 123
ancest@@ 123
autom@@ 123
bble 123
compared 123
conscious 123
driven 123
dynamic 123
easier 123
expect@@ 123
experim@@ 123
fields 123
insects 123
ket 123
neighborhood 123
neur@@ 123
oral 123
read@@ 123
shop 123
sister 123
theater 123
volunte@@ 123
whom 123
Take 122
ana 122
argument 122
bers 122
breast 122
dig@@ 122
ek 122
emotions 122
equivalent 122
ha 122
ince 122
journalis@@ 122
keeping 122
ograph@@ 122
planning 122
predict 122
principles 122
six@@ 122
soil 122
susp@@ 122
veget@@ 122
wear 122
Bar@@ 121
Everything 121
Go 121
ancing 121
chemistry 121
ease 121
eter 121
gram 121
imm@@ 121
ine@@ 121
link 121
narr@@ 121
offer 121
ox@@ 121
photos 121
proj@@ 121
random 121
scen@@ 121
signal 121
spot 121
survival 121
tons 121
transform 121
tured 121
unfortunately 121
wild 121
Wor@@ 120
belief 120
brother 120
civil 120
cortex 120
divi@@ 120
emp@@ 120
equal 120
ere@@ 120
factory 120
failed 120
ization 120
managed 120
mouse 120
ote 120
prevent 120
principle 120
s-@@ 120
spirit 120
weird 120
Des@@ 119
Each 119
George 119
Mu@@ 119
See 119
collec@@ 119
construction 119
define 119
disco@@ 119
entr@@ 119
inst@@ 119
lowers 119
nel 119
note 119
otherwise 119
signals 119
soldiers 119
stic@@ 119
succe@@ 119
yesterday 119
Bill 118
Did 118
Ser@@ 118
account 118
afford 118
ant@@ 118
argue 118
bles 118
chers 118
combin@@ 118
desert 118
despite 118
ement@@ 118
er-@@ 118
exists 118
illustr@@ 118
las@@ 118
magazine 118
rs 118
seat 118
shif@@ 118
tant 118
tes@@ 118
toward 118
worried 118
Chil@@ 117
Mil@@ 117
af@@ 117
ails 117
artificial 117
atures 117
bar 117
believed 117
challeng@@ 117
chemicals 117
deeply 117
due 117
extreme 117
foreign 117
govern@@ 117
grandmother 117
members 117
metal 117
ming 117
muscle 117
normally 117
ordinary 117
plu@@ 117
pon@@ 117
profit 117
protein 117
rural 117
sexu@@ 117
shouldn 117
stone 117
thin 117
tric 117
zz@@ 117
Al 116
Everybody 116
More 116
bes@@ 116
explan@@ 116
hopefully 116
imag@@ 116
in-@@ 116
int 116
investment 116
lif@@ 116
match 116
medi@@ 116
mot@@ 116
motion 116
movies 116
mp 116
rain@@ 116
shi@@ 116
tough 116
European 115
acti@@ 115
arm@@ 115
arms 115
condition 115
contact 115
continent 115
crimin@@ 115
described 115
dinosaurs 115
distribu@@ 115
enever 115
ental 115
fem@@ 115
flies 115
gry 115
ham@@ 115
invisible 115
invited 115
iss@@ 115
keys 115
lam@@ 115
oph@@ 115
pleasure 115
producing 115
raised 115
seriously 115
temp@@ 115
tomorrow 115
tox@@ 115
trip 115
urch 115
21@@ 114
Anderson 114
Ital@@ 114
Japanese 114
aches 114
apo@@ 114
bank 114
classroom 114
electrical 114
feelings 114
fix@@ 114
infin@@ 114
ka 114
lack 114
oning 114
organized 114
pap@@ 114
photo 114
politi@@ 114
pre-@@ 114
professional 114
rele@@ 114
represent 114
solved 114
son@@ 114
stimul@@ 114
studied 114
stun@@ 114
sum 114
tis@@ 114
vehicle 114
victi@@ 114
youn@@ 114
Any@@ 113
Audience 113
Over 113
Stu@@ 113
consequences 113
constantly 113
debate 113
dinner 113
distribution 113
elling 113
graduate 113
grown 113
joy 113
leader 113
lock 113
married 113
metaphor 113
monit@@ 113
names 113
plus 113
spr@@ 113
st-@@ 113
ute 113
3D 112
However 112
Mexico 112
acking 112
aded 112
adult 112
audi@@ 112
ayed 112
breath 112
collective 112
conver@@ 112
een 112
followed 112
fore@@ 112
hidden 112
holes 112
icon 112
independent 112
island 112
letters 112
lit@@ 112
pay@@ 112
pros@@ 112
roll 112
shapes 112
sis 112
suc@@ 112
symbo@@ 112
teen@@ 112
tened 112
universal 112
ury 112
00@@ 111
Anyway 111
Three 111
Times 111
aled 111
arrived 111
bear 111
deliver 111
effici@@ 111
emo@@ 111
fish@@ 111
fourth 111
health@@ 111
hol@@ 111
husband 111
incre@@ 111
inking 111
inner 111
kly 111
layer 111
limited 111
losing 111
majority 111
mal 111
malaria 111
mic 111
negoti@@ 111
ounds 111
pack@@ 111
picked 111
pun@@ 111
roughly 111
sy@@ 111
Egy@@ 110
avoid 110
businesses 110
clock 110
coast 110
compos@@ 110
coral 110
craft 110
da 110
demand 110
disaster 110
gather@@ 110
hate 110
ign 110
photographs 110
profess@@ 110
restaurant 110
scene 110
speech 110
threat 110
vas@@ 110
wealth 110
150 109
Braz@@ 109
James 109
Michael 109
anger 109
arts 109
campaign 109
chan@@ 109
closed 109
coal 109
details 109
economics 109
email 109
enem@@ 109
ereas 109
esp@@ 109
generations 109
grad@@ 109
inform@@ 109
invent@@ 109
izing 109
jud@@ 109
labor@@ 109
location 109
lunch 109
mistakes 109
multiple 109
nations 109
oll@@ 109
opy 109
ore@@ 109
org@@ 109
perce@@ 109
player 109
players 109
serve 109
strategy 109
surprise 109
tal 109
teeth 109
terror@@ 109
tex@@ 109
thesis 109
tumor 109
ven 109
waves 109
-up 108
45 108
Ni@@ 108
abstr@@ 108
ager 108
agriculture 108
aug@@ 108
bru@@ 108
by@@ 108
conclu@@ 108
cultures 108
def@@ 108
develop@@ 108
entation 108
fair 108
fat 108
fortunately 108
gue 108
happ@@ 108
matters 108
mortality 108
natur@@ 108
paying 108
possibilities 108
prev@@ 108
ray 108
respond 108
shoul@@ 108
sugar 108
symp@@ 108
tern 108
traffic 108
ull 108
wide 108
17@@ 107
Christ@@ 107
Cl@@ 107
Ke@@ 107
N 107
NASA 107
Wat@@ 107
Women 107
acted 107
addition 107
connections 107
consumption 107
currently 107
dee@@ 107
employ@@ 107
facts 107
hadn 107
harder 107
hell 107
honest 107
intervie@@ 107
invention 107
kilometers 107
mor 107
nervous 107
opening 107
optimis@@ 107
physic@@ 107
poor@@ 107
proud 107
ra 107
rob@@ 107
sharks 107
station 107
tane@@ 107
thir@@ 107
tting 107
unless 107
warm 107
wid@@ 107
Chris@@ 106
DP 106
Lo@@ 106
Nigeria 106
Q@@ 106
Would 106
alo@@ 106
arri@@ 106
aster@@ 106
box@@ 106
bright 106
circum@@ 106
compare 106
copy 106
curious 106
descri@@ 106
drink 106
ector 106
equipment 106
folks 106
forced 106
friend@@ 106
kid@@ 106
leaves 106
not@@ 106
pes 106
president 106
processes 106
property 106
west 106
100,000 105
600 105
Come 105
England 105
Vir@@ 105
analysis 105
ath 105
auth@@ 105
battery 105
blu@@ 105
caused 105
collect 105
dealing 105
detail 105
duction 105
emerging 105
empty 105
essential 105
finish 105
highest 105
invest 105
represents 105
target 105
theme 105
thu@@ 105
Ad@@ 104
Britain 104
Do@@ 104
Fi@@ 104
Inter@@ 104
Kenya 104
Pacific 104
Wal@@ 104
abilities 104
absolute 104
affected 104
alist 104
bottle 104
buc@@ 104
carefully 104
cen@@ 104
characters 104
din@@ 104
enjo@@ 104
existence 104
expression 104
frame 104
han@@ 104
interface 104
investi@@ 104
launched 104
leadership 104
leg 104
lis@@ 104
manipul@@ 104
mentioned 104
meter 104
orig@@ 104
practical 104
relevant 104
requi@@ 104
selling 104
spring 104
ster@@ 104
thoughts 104
tles 104
ung 104
wire 104
worldwide 104
99 103
Have 103
ado@@ 103
alternative 103
appears 103
arly 103
associated 103
chec@@ 103
dreams 103
experts 103
fresh 103
importance 103
inj@@ 103
labor 103
lan@@ 103
organs 103
ples 103
prove 103
reward 103
river 103
round 103
sand 103
sentence 103
sides 103
silk 103
suggest 103
testing 103
thin@@ 103
tune 103
ution 103
vote 103
woo@@ 103
20th 102
Bl@@ 102
ainment 102
boun@@ 102
bus 102
cameras 102
cks 102
cles 102
cons@@ 102
counter@@ 102
defined 102
direct 102
distinc@@ 102
dots 102
drag@@ 102
eds 102
fell 102
hydrogen 102
logic 102
nam@@ 102
pit@@ 102
pregn@@ 102
resource 102
robo@@ 102
spectrum 102
string 102
sts 102
tan@@ 102
technical 102
university 102
v 102
ve-@@ 102
weather 102
Institute 101
Ki@@ 101
according 101
asses 101
aten 101
bab@@ 101
buying 101
chain 101
chic@@ 101
colon@@ 101
controlled 101
curr@@ 101
daily 101
doc@@ 101
double 101
effectively 101
eting 101
gate 101
igno@@ 101
illing 101
lies 101
mati@@ 101
molecular 101
peri@@ 101
remote 101
saved 101
sector 101
south 101
stood 101
story@@ 101
tian 101
tual 101
tum 101
valuable 101
3,000 100
Harvard 100
Lu@@ 100
President 100
Their 100
YouTube 100
aci@@ 100
atr@@ 100
awar@@ 100
awful 100
ballo@@ 100
buil@@ 100
clean@@ 100
clinical 100
concentr@@ 100
definitely 100
dence 100
dens@@ 100
exercise 100
fishing 100
hasn 100
hero 100
houses 100
ingre@@ 100
introduced 100
itarian 100
ith 100
je@@ 100
lessons 100
long-term 100
maint@@ 100
mathemati@@ 100
newspaper 100
plays 100
spoke 100
stupid 100
sym@@ 100
variety 100
Dan 99
Darwin 99
H 99
bia 99
ble@@ 99
ca 99
cloud 99
cognitive 99
de-@@ 99
display 99
facing 99
factor 99
faith 99
fal@@ 99
gravity 99
hypo@@ 99
increasing 99
intro@@ 99
jun@@ 99
killing 99
lets 99
liked 99
mam@@ 99
mark 99
marketing 99
medium 99
nar@@ 99
oting 99
rapidly 99
rates 99
setting 99
ums 99
vac@@ 99
35 98
Center 98
Facebook 98
V 98
Wikipedia 98
X@@ 98
accept 98
appropriate 98
ason 98
bic@@ 98
budget 98
caus@@ 98
defin@@ 98
fore 98
infected 98
instrument 98
interaction 98
mount@@ 98
play@@ 98
primary 98
radiation 98
realiz@@ 98
safety 98
section 98
stop@@ 98
sures 98
tend@@ 98
till 98
vel@@ 98
videos 98
violent 98
wine 98
zes 98
Gal@@ 97
Islam 97
anim@@ 97
anti-@@ 97
appar@@ 97
bed@@ 97
bling 97
calling 97
computing 97
considered 97
controll@@ 97
dir@@ 97
driver 97
emissions 97
evil 97
fellow 97
frustr@@ 97
intellectual 97
introduce 97
long@@ 97
lows 97
meaning@@ 97
measur@@ 97
minim@@ 97
modi@@ 97
north 97
oid 97
oke 97
organ 97
organism 97
pen 97
proce@@ 97
productive 97
rational 97
ride 97
ships 97
sophistic@@ 97
sources 97
steel 97
struggle 97
tol@@ 97
transformation 97
underneath 97
vibr@@ 97
volu@@ 97
worlds 97
F 96
Islam@@ 96
X 96
actor 96
architect 96
dest 96
empl@@ 96
encoun@@ 96
establ@@ 96
etry 96
exc@@ 96
farm 96
feedback 96
flat 96
free@@ 96
ign@@ 96
illed 96
illi@@ 96
manage 96
near@@ 96
partner 96
presentation 96
ques@@ 96
regular 96
satellite 96
sequ@@ 96
shaped 96
sia 96
specifically 96
spir@@ 96
status 96
techniques 96
trage@@ 96
unk 96
vaccine 96
van 96
wil@@ 96
wise 96
2008 95
Fri@@ 95
Gol@@ 95
Kore@@ 95
La@@ 95
On@@ 95
Scot@@ 95
Sim@@ 95
Vi@@ 95
academ@@ 95
ailed 95
astronom@@ 95
atoms 95
ba 95
berg 95
cards 95
curve 95
diet 95
encies 95
ender 95
fes@@ 95
heavy 95
holds 95
hospit@@ 95
kno@@ 95
microbes 95
milli@@ 95
movements 95
nership 95
rare 95
requires 95
sets 95
sian 95
swim 95
tings 95
trick 95
ulf 95
users 95
visible 95
writer 95
15@@ 94
Please 94
Thomas 94
appear@@ 94
convince 94
coo@@ 94
environments 94
epidemic 94
fundament@@ 94
gall@@ 94
gling 94
lifetime 94
low@@ 94
mas 94
medic@@ 94
plas@@ 94
platform 94
protected 94
publ@@ 94
spe@@ 94
stati@@ 94
style 94
sul@@ 94
suppose 94
sust@@ 94
tern@@ 94
wings 94
zone 94
195@@ 93
Iran 93
J 93
Lin@@ 93
MS 93
Street 93
U.K. 93
U.N. 93
accident 93
added 93
analo@@ 93
biom@@ 93
ee 93
emotion 93
empath@@ 93
fail 93
gap 93
gies 93
hits 93
hyper@@ 93
ians 93
identify 93
ides 93
influ@@ 93
lady 93
new@@ 93
ounding 93
perception 93
personally 93
poli@@ 93
processing 93
proteins 93
radical 93
relatively 93
sight 93
spiritu@@ 93
tension 93
tie 93
Am@@ 92
CE@@ 92
Does 92
Har@@ 92
Wow 92
abo@@ 92
advertis@@ 92
akes 92
ban 92
beg@@ 92
bene@@ 92
boo@@ 92
carrying 92
combination 92
compl@@ 92
credit 92
destruction 92
dia 92
dish 92
dol@@ 92
eigh@@ 92
ele@@ 92
encing 92
explains 92
fort 92
generally 92
grid 92
homes 92
kitch@@ 92
liver 92
maps 92
musi@@ 92
open-@@ 92
operate 92
passionate 92
penguins 92
pers 92
phan@@ 92
planes 92
privil@@ 92
sad 92
sensitive 92
shark 92
staf@@ 92
unusual 92
ycle 92
00,000 91
Fe@@ 91
Ho@@ 91
Last 91
Rem@@ 91
School 91
Talk 91
ades 91
aliz@@ 91
amed 91
are@@ 91
aston@@ 91
bom@@ 91
clip 91
components 91
convinced 91
cooking 91
dynam@@ 91
employees 91
encour@@ 91
enture 91
ety 91
exchange 91
experienced 91
fossil 91
goods 91
grain 91
horse 91
iling 91
impl@@ 91
inspir@@ 91
interests 91
ither 91
laptop 91
laugh@@ 91
lay@@ 91
liquid 91
marriage 91
mathematical 91
mention 91
motor 91
nets 91
plac@@ 91
previous 91
reaction 91
refu@@ 91
relate 91
reven@@ 91
studio 91
surprised 91
swimming 91
Haw@@ 90
Robert 90
Sch@@ 90
ak 90
aming 90
birth@@ 90
boring 90
conce@@ 90
creature 90
elev@@ 90
encourage 90
entrepreneurs 90
foundation 90
iness 90
intr@@ 90
invent 90
lay 90
master 90
netic 90
odd 90
ord@@ 90
paradig@@ 90
pri@@ 90
pulled 90
quan@@ 90
risks 90
shall 90
situations 90
smar@@ 90
strate@@ 90
switch 90
trilli@@ 90
vement 90
voices 90
watched 90
whel@@ 90
winter 90
AR@@ 89
Du@@ 89
Francisco 89
King 89
allo@@ 89
blocks 89
broke 89
click 89
cure 89
discussion 89
elet@@ 89
enced 89
express 89
f-@@ 89
gh 89
initi@@ 89
ky@@ 89
marine 89
mess@@ 89
occur@@ 89
paint 89
ply 89
presence 89
psy@@ 89
roots 89
satis@@ 89
tionary 89
typic@@ 89
Dar@@ 88
Hai@@ 88
II 88
Steve 88
TEDx@@ 88
X-@@ 88
aspect 88
atta@@ 88
burn 88
camp 88
compas@@ 88
ems 88
fas@@ 88
films 88
gen 88
ght-@@ 88
ny 88
stable 88
tradition 88
via 88
50,000 87
Cor@@ 87
Pakistan 87
acc@@ 87
centage 87
cham@@ 87
conventi@@ 87
crip@@ 87
ela 87
eld 87
intern@@ 87
ions 87
lue 87
offici@@ 87
ous@@ 87
pack 87
paraly@@ 87
phenomen@@ 87
power@@ 87
reci@@ 87
rend@@ 87
sible 87
sto@@ 87
sub-@@ 87
unit 87
Bank 86
Satur@@ 86
adic@@ 86
alle@@ 86
aving 86
capture 86
diam@@ 86
dings 86
four@@ 86
fran@@ 86
ises 86
let@@ 86
na@@ 86
nutri@@ 86
post-@@ 86
sen 86
simpl@@ 86
uments 86
user 86
yer 86
2000 85
Project 85
Sep@@ 85
Vo@@ 85
amaz@@ 85
amoun@@ 85
band 85
bet 85
cape 85
former 85
gain 85
ges@@ 85
i-@@ 85
iller 85
lap@@ 85
mate 85
mines 85
opinion 85
protection 85
resp@@ 85
reti@@ 85
stea@@ 85
tax@@ 85
transition 85
van@@ 85
wake 85
Ab@@ 84
Char@@ 84
Twitter 84
conflic@@ 84
cool@@ 84
correct 84
cs 84
di 84
diag@@ 84
exact 84
flexi@@ 84
fortun@@ 84
horiz@@ 84
istance 84
life@@ 84
polio 84
ram@@ 84
relative 84
surg@@ 84
viol@@ 84
75 83
Austral@@ 83
Chicago 83
Jer@@ 83
Nat@@ 83
New@@ 83
Sar@@ 83
Sou@@ 83
absor@@ 83
alli@@ 83
anks 83
autonom@@ 83
bin@@ 83
certain@@ 83
dent 83
diplom@@ 83
escope 83
essive 83
exam@@ 83
fic 83
figures 83
gging 83
ient 83
lear@@ 83
less@@ 83
management 83
mom@@ 83
musical 83
pollution 83
sa@@ 83
shar@@ 83
stand@@ 83
stoc@@ 83
yl@@ 83
2007 82
Bur@@ 82
Dis@@ 82
any@@ 82
cents 82
chimpanz@@ 82
en-@@ 82
fav@@ 82
gam@@ 82
gran@@ 82
infec@@ 82
nest 82
patho@@ 82
saf@@ 82
tea@@ 82
univer@@ 82
2.@@ 81
Boston 81
Canada 81
Hun@@ 81
Jan@@ 81
Prize 81
Science 81
Tre@@ 81
Valley 81
activis@@ 81
cab@@ 81
conclusion 81
conven@@ 81
iture 81
larg@@ 81
mains 81
messages 81
notes 81
poly@@ 81
pure 81
ritu@@ 81
stru@@ 81
tape 81
tests 81
tum@@ 81
vention 81
volume 81
- 80
Bab@@ 80
Cal@@ 80
Chi@@ 80
ED 80
Ros@@ 80
anta 80
archit@@ 80
atin 80
bout 80
colle@@ 80
combine 80
coordin@@ 80
cript 80
designs 80
enc@@ 80
ert 80
fense 80
insec@@ 80
liz@@ 80
pin@@ 80
pollen 80
probabil@@ 80
recycl@@ 80
rup@@ 80
signific@@ 80
thal 80
vert 80
villages 80
16@@ 79
At@@ 79
Bush 79
ander 79
atest 79
ben@@ 79
etting 79
extinc@@ 79
fe 79
gol@@ 79
institu@@ 79
isol@@ 79
neutr@@ 79
origin@@ 79
ose 79
perman@@ 79
plans 79
pois@@ 79
quanti@@ 79
records 79
religions 79
scann@@ 79
survi@@ 79
tom 79
treat@@ 79
Arab@@ 78
Por@@ 78
Tu@@ 78
aine 78
aj@@ 78
blog 78
co-@@ 78
communic@@ 78
cue 78
drew 78
ena 78
esh 78
exponenti@@ 78
gang 78
gin@@ 78
gment 78
grand 78
igh 78
ision 78
lau@@ 78
pend 78
priv@@ 78
public@@ 78
puzzle 78
transport@@ 78
umb@@ 78
Afric@@ 77
Apple 77
Israel 77
Ko@@ 77
Man@@ 77
Mat@@ 77
PA 77
Union 77
accompl@@ 77
aves 77
bert 77
cardi@@ 77
che 77
clou@@ 77
concepts 77
deb@@ 77
dense 77
ense 77
ext 77
fascin@@ 77
finance 77
foc@@ 77
gin 77
iPhone 77
implications 77
institution 77
instruments 77
intuitive 77
mim@@ 77
multi-@@ 77
ope 77
pile 77
plo@@ 77
pret@@ 77
progr@@ 77
ram 77
sand@@ 77
syst@@ 77
vehic@@ 77
zoom 77
Congr@@ 76
France 76
Pi@@ 76
State 76
amor@@ 76
aver@@ 76
bacter@@ 76
compon@@ 76
contin@@ 76
expert 76
horrible 76
inspiration 76
insur@@ 76
options 76
oud 76
parking 76
piano 76
potenti@@ 76
pyram@@ 76
roman@@ 76
ski@@ 76
vacc@@ 76
AB 75
Hou@@ 75
Hy@@ 75
Willi@@ 75
agers 75
an-@@ 75
authenti@@ 75
collaboration 75
competi@@ 75
correc@@ 75
exploration 75
hau@@ 75
icide 75
lin 75
relation 75
sac@@ 75
sin@@ 75
tempor@@ 75
voc@@ 75
21 74
As@@ 74
Juli@@ 74
Paris 74
Sahar@@ 74
Sil@@ 74
Wom@@ 74
ac 74
anz@@ 74
applications 74
athan 74
consider@@ 74
copy@@ 74
corn 74
dependent 74
enz@@ 74
fat@@ 74
gy@@ 74
indi@@ 74
invest@@ 74
iti@@ 74
num@@ 74
ond 74
ota 74
oxy@@ 74
puzz@@ 74
sculpture 74
sign@@ 74
soft 74
techn@@ 74
technique 74
thes 74
thou@@ 74
tiv@@ 74
traits 74
yo@@ 74
2005 73
Art 73
Bang 73
Bible 73
C. 73
Foundation 73
Roc@@ 73
Wil@@ 73
bal 73
chocol@@ 73
cir@@ 73
constant 73
div@@ 73
ees 73
eth 73
orches@@ 73
plate 73
pop 73
scop@@ 73
sus 73
tour 73
vers@@ 73
vide 73
.com 72
Ah 72
Cu@@ 72
Ethiop@@ 72
Green@@ 72
Microsoft 72
Num@@ 72
Oc@@ 72
Rom@@ 72
Ven@@ 72
beli@@ 72
cident@@ 72
dau@@ 72
duced 72
escence 72
fau@@ 72
gation 72
glo@@ 72
hydro@@ 72
intense 72
istant 72
lat@@ 72
mes@@ 72
navig@@ 72
option 72
rais@@ 72
rand@@ 72
ridicul@@ 72
simplic@@ 72
tenti@@ 72
tube 72
vation 72
yr@@ 72
2004 71
95 71
Bay 71
DH 71
Global 71
Los 71
Phili@@ 71
Red@@ 71
abor@@ 71
ais@@ 71
alth 71
ames 71
argu@@ 71
corruption 71
directions 71
elo@@ 71
essi@@ 71
globe 71
ins@@ 71
ison 71
ki 71
nuc@@ 71
recomm@@ 71
rement 71
standards 71
Rob@@ 70
aster 70
cide 70
constr@@ 70
contro@@ 70
cosmo@@ 70
danger 70
domes@@ 70
eck 70
embarr@@ 70
fel@@ 70
haps 70
manu@@ 70
occup@@ 70
ord 70
pon 70
prac@@ 70
trad@@ 70
2009 69
BF 69
Every@@ 69
Her@@ 69
U 69
accessible 69
ait 69
ami@@ 69
amin@@ 69
animation 69
astr@@ 69
bloo@@ 69
chol@@ 69
cos@@ 69
infl@@ 69
laser 69
mill@@ 69
mur@@ 69
stress 69
stu@@ 69
year-@@ 69
65 68
Can@@ 68
Hollywood 68
Narr@@ 68
Peter 68
Sm@@ 68
Tom 68
U.@@ 68
add@@ 68
agri@@ 68
aint 68
ald 68
architec@@ 68
bad@@ 68
civil@@ 68
concre@@ 68
constitu@@ 68
dign@@ 68
ens@@ 68
ern@@ 68
file 68
golf 68
grav@@ 68
hood 68
interview 68
ko 68
manag@@ 68
nec@@ 68
nes@@ 68
positions 68
prior@@ 68
proto@@ 68
que 68
ress 68
sculp@@ 68
sses 68
swit@@ 68
toil@@ 68
visi@@ 68
windo@@ 68
19 67
Dev@@ 67
Ear@@ 67
Island 67
Museum 67
Obama 67
Oxford 67
SW 67
Tit@@ 67
War@@ 67
accumul@@ 67
appl@@ 67
barri@@ 67
consist@@ 67
eters 67
gent@@ 67
ination 67
instinc@@ 67
ll 67
moder@@ 67
orb@@ 67
ren 67
sh 67
sor@@ 67
surfaces 67
sustain@@ 67
vag@@ 67
yn@@ 67
22 66
Ghana 66
Intern@@ 66
Mor@@ 66
Nobel 66
Ob@@ 66
Pri@@ 66
Sal@@ 66
aper 66
associ@@ 66
bil@@ 66
cock@@ 66
commun@@ 66
contempor@@ 66
dients 66
ero 66
iP@@ 66
insul@@ 66
mach@@ 66
origami 66
parent 66
prototype 66
silence 66
sion@@ 66
trait 66
ua 66
zo@@ 66
14@@ 65
27 65
Antarc@@ 65
BC 65
Bal@@ 65
RB 65
Rwanda 65
The@@ 65
Tor@@ 65
Y 65
anny 65
arry 65
aspects 65
chap@@ 65
communications 65
correspon@@ 65
fan 65
heal@@ 65
het@@ 65
hi 65
ird 65
men@@ 65
na 65
obser@@ 65
other@@ 65
ount@@ 65
phase 65
session 65
som@@ 65
tile 65
transc@@ 65
00 64
2010 64
Em@@ 64
Gore 64
antibio@@ 64
application 64
ata 64
chose 64
differ@@ 64
emis@@ 64
ette 64
ew 64
fabul@@ 64
inspire 64
ore 64
sensor@@ 64
spectac@@ 64
tening 64
tiles 64
vet@@ 64
what@@ 64
Lad@@ 63
Martin 63
Viet@@ 63
adol@@ 63
anatom@@ 63
ange 63
angers 63
ape 63
aus@@ 63
color@@ 63
conn@@ 63
diab@@ 63
difficul@@ 63
dimension 63
diver@@ 63
graphi@@ 63
hall 63
his@@ 63
improvis@@ 63
occas@@ 63
open@@ 63
propos@@ 63
q@@ 63
red@@ 63
sel 63
shirt 63
writ@@ 63
2006 62
32 62
Den@@ 62
Mac@@ 62
Mand@@ 62
Stanford 62
Tw@@ 62
We@@ 62
angio@@ 62
classes 62
collection 62
diff@@ 62
docum@@ 62
doubl@@ 62
fam@@ 62
formation 62
gal@@ 62
intrig@@ 62
jec@@ 62
minis@@ 62
miss@@ 62
muscles 62
ond@@ 62
ort 62
rent 62
sent@@ 62
sex@@ 62
sey 62
sim@@ 62
simil@@ 62
tations 62
tour@@ 62
xim@@ 62
Alex@@ 61
Flor@@ 61
Olym@@ 61
Sovi@@ 61
Tal@@ 61
ament 61
ato@@ 61
attribu@@ 61
bloc@@ 61
blogs 61
centi@@ 61
citiz@@ 61
ganda 61
ghter 61
industries 61
install@@ 61
mea@@ 61
mon 61
philanthro@@ 61
phot@@ 61
ple@@ 61
pollu@@ 61
ption 61
trou@@ 61
yers 61
Ben@@ 60
Long 60
Mer@@ 60
Moore 60
Park 60
Pe@@ 60
Ty@@ 60
ander@@ 60
at-@@ 60
candi@@ 60
circuit 60
clients 60
coc@@ 60
diction 60
dition 60
ead 60
fabri@@ 60
inging 60
initial 60
itude 60
objec@@ 60
serv@@ 60
stitu@@ 60
ts@@ 60
underst@@ 60
vit@@ 60
ysi@@ 60
Ag@@ 59
Atlan@@ 59
Ed@@ 59
Eri@@ 59
Indi@@ 59
Mark 59
Sol@@ 59
Wol@@ 59
acqu@@ 59
affec@@ 59
aim@@ 59
band@@ 59
courage 59
dinosau@@ 59
elop@@ 59
football 59
inno@@ 59
itive 59
microscope 59
mou@@ 59
ploy@@ 59
polic@@ 59
rar@@ 59
stations 59
vered 59
26 58
Angeles 58
Bronx 58
Howard 58
Im@@ 58
Rome 58
Ru@@ 58
aces 58
appe@@ 58
ast@@ 58
camp@@ 58
co 58
concep@@ 58
cot@@ 58
curios@@ 58
erg@@ 58
gence 58
grat@@ 58
idi@@ 58
lec@@ 58
lon@@ 58
lot@@ 58
nation@@ 58
opti@@ 58
pel@@ 58
populations 58
practi@@ 58
process@@ 58
produ@@ 58
sat@@ 58
tac@@ 58
tin 58
2003 57
250 57
700 57
Amaz@@ 57
Arch@@ 57
agos 57
bit@@ 57
efforts 57
favor@@ 57
figur@@ 57
fusion 57
hen@@ 57
immedi@@ 57
kins 57
lo 57
observation 57
pai@@ 57
persu@@ 57
phrase 57
professi@@ 57
rel 57
rements 57
sauce 57
subst@@ 57
tis 57
toc@@ 57
ya 57
2001 56
Ap@@ 56
CA@@ 56
Iran@@ 56
Manhattan 56
My@@ 56
SE@@ 56
Steven 56
Tali@@ 56
Ter@@ 56
Tri@@ 56
angles 56
bo 56
bud@@ 56
cyber@@ 56
dist@@ 56
explosion 56
frontal 56
fur 56
gan@@ 56
ham 56
intuition 56
logi@@ 56
long-@@ 56
mani@@ 56
nia 56
rou@@ 56
sa 56
strai@@ 56
succ@@ 56
super-@@ 56
trag@@ 56
usual 56
wai@@ 56
wee@@ 56
wis@@ 56
2,@@ 55
23 55
Don@@ 55
Dur@@ 55
GP@@ 55
Goo@@ 55
Nature 55
Ray 55
Sur@@ 55
Tim 55
W 55
ace@@ 55
consci@@ 55
cycles 55
dilem@@ 55
document 55
engine@@ 55
gig@@ 55
habitat 55
interactions 55
ires 55
magni@@ 55
micro-@@ 55
net@@ 55
orange 55
quot@@ 55
rats 55
sionate 55
stom@@ 55
success@@ 55
temper@@ 55
tise 55
tives 55
traditions 55
venti@@ 55
Ben 54
Bon@@ 54
Bri@@ 54
Congo 54
Frank 54
Gl@@ 54
Ken@@ 54
She@@ 54
Six 54
Texas 54
ario 54
atom@@ 54
chaos 54
charg@@ 54
compan@@ 54
conv@@ 54
conversations 54
dil@@ 54
entrepren@@ 54
exclu@@ 54
fiction 54
innovations 54
instructions 54
ki@@ 54
otechno@@ 54
pare 54
rich@@ 54
rom@@ 54
variation 54
web@@ 54
Cambridge 53
Cap@@ 53
Carol@@ 53
KB 53
Mag@@ 53
Nations 53
aband@@ 53
colo@@ 53
convic@@ 53
distr@@ 53
enly 53
farm@@ 53
gens 53
horri@@ 53
neighbor@@ 53
oty@@ 53
photograp@@ 53
pir@@ 53
prototy@@ 53
regret 53
rout@@ 53
transmission 53
urity 53
week@@ 53
with@@ 53
47 52
Homo 52
Mas@@ 52
Sau@@ 52
Tas@@ 52
ang 52
angible 52
anthropo@@ 52
aspir@@ 52
batter@@ 52
bizarre 52
distin@@ 52
dur@@ 52
escent 52
fits 52
guide 52
illusion 52
immer@@ 52
inning 52
invas@@ 52
ip@@ 52
ission 52
lecture 52
males 52
nutrition 52
observ@@ 52
oms 52
ora 52
paras@@ 52
sacri@@ 52
sandwich 52
surpris@@ 52
transpar@@ 52
Arc@@ 51
Centr@@ 51
Jon@@ 51
Kh@@ 51
Sci@@ 51
abol@@ 51
ancer 51
aqu@@ 51
arrang@@ 51
arro@@ 51
atar 51
attend@@ 51
azz 51
certi@@ 51
chron@@ 51
circul@@ 51
consul@@ 51
cous@@ 51
discipl@@ 51
engagement 51
estin@@ 51
ett 51
hack@@ 51
limit@@ 51
luc@@ 51
midd@@ 51
mm 51
motivation 51
nom@@ 51
omb@@ 51
omes 51
plann@@ 51
relations 51
restaurants 51
simulation 51
transparent 51
tsunami 51
Adam 50
Brown 50
Cro@@ 50
Gand@@ 50
Gi@@ 50
Johnson 50
Mad@@ 50
Mur@@ 50
Ver@@ 50
accidents 50
anger@@ 50
ara 50
charges 50
confir@@ 50
confron@@ 50
craf@@ 50
deed 50
entrepreneur 50
epi@@ 50
expos@@ 50
isten 50
itch@@ 50
ja@@ 50
ld 50
mail 50
mammo@@ 50
manif@@ 50
ou 50
parties 50
permission 50
phant 50
pot 50
quit@@ 50
sty@@ 50
tice 50
util@@ 50
28 49
Aus@@ 49
Feynman 49
HI@@ 49
Jim 49
Pan@@ 49
Tony 49
agent 49
apes 49
chim@@ 49
complet@@ 49
crucial 49
dant 49
description 49
destin@@ 49
dren 49
ech@@ 49
eff@@ 49
eve 49
fici@@ 49
fru@@ 49
glamour 49
got@@ 49
halluc@@ 49
instruc@@ 49
invite 49
mode 49
mun@@ 49
pic 49
run@@ 49
sciences 49
yn 49
0 48
29 48
800 48
Abrah@@ 48
Delhi 48
Kevin 48
Stephen 48
altitude 48
angl@@ 48
assembl@@ 48
attitude 48
cept 48
cid@@ 48
cin@@ 48
client 48
dit@@ 48
estation 48
eus 48
excep@@ 48
experi@@ 48
grati@@ 48
gur@@ 48
harmon@@ 48
ok@@ 48
onom@@ 48
pollin@@ 48
soldi@@ 48
them@@ 48
ulation 48
120 47
Brian 47
Hong 47
JH 47
Larry 47
May@@ 47
SA 47
Sus@@ 47
age@@ 47
aniel 47
arrive 47
aur@@ 47
chromosome 47
conc@@ 47
condi@@ 47
du 47
extinction 47
fantas@@ 47
ghtly 47
gir@@ 47
ignor@@ 47
impres@@ 47
interes@@ 47
ject 47
lav@@ 47
lowing 47
mean@@ 47
mption 47
mul@@ 47
ode 47
opar@@ 47
pharmaceu@@ 47
popul@@ 47
rab@@ 47
route 47
rying 47
scho@@ 47
ser 47
sias@@ 47
super 47
talent 47
territ@@ 47
1960 46
Isra@@ 46
Monter@@ 46
Shangh@@ 46
aly@@ 46
articles 46
batt@@ 46
club 46
court 46
echno@@ 46
essions 46
expansion 46
fres@@ 46
individu@@ 46
iter 46
lou@@ 46
lowed 46
propor@@ 46
ree 46
sensi@@ 46
si 46
tar@@ 46
uti@@ 46
va 46
ville 46
vo 46
yp@@ 46
85 45
Bob 45
Niger@@ 45
Pu@@ 45
annu@@ 45
anony@@ 45
ativ@@ 45
class@@ 45
contra@@ 45
dialogue 45
dit 45
enter@@ 45
exper@@ 45
exu@@ 45
fronti@@ 45
gras 45
isi@@ 45
ix 45
jihad 45
logo 45
pengu@@ 45
pho@@ 45
placement 45
prime 45
proc@@ 45
remi@@ 45
sensation 45
sequences 45
Gro@@ 44
NA@@ 44
Sa@@ 44
administration 44
anci@@ 44
arian 44
assemble 44
cher@@ 44
chromo@@ 44
comment 44
continents 44
cricket 44
entu@@ 44
grap@@ 44
initiative 44
ition 44
lig@@ 44
lux@@ 44
miracle 44
parado@@ 44
plat@@ 44
rough@@ 44
se-@@ 44
secon@@ 44
secre@@ 44
statis@@ 44
syndrome 44
transport 44
trau@@ 44
worl@@ 44
Benjamin 43
Bre@@ 43
Chr@@ 43
Ever@@ 43
Gar@@ 43
Pau@@ 43
Sel@@ 43
adem@@ 43
anda 43
ares 43
auc@@ 43
bet@@ 43
discipline 43
ellow 43
ent-@@ 43
ethni@@ 43
exception 43
imer 43
lation 43
may@@ 43
nes 43
obstacles 43
parach@@ 43
param@@ 43
rang@@ 43
scope 43
ural 43
zones 43
abil@@ 42
anxi@@ 42
atu@@ 42
audit@@ 42
beauti@@ 42
cancers 42
chances 42
chil@@ 42
concert 42
connect@@ 42
dop@@ 42
dus 42
failu@@ 42
forc@@ 42
infection 42
lands@@ 42
lik@@ 42
proportion 42
quali@@ 42
sons 42
substance 42
sue 42
trace 42
vic@@ 42
Afgh@@ 41
All@@ 41
Fran@@ 41
actu@@ 41
anten@@ 41
clic@@ 41
concentration 41
conom@@ 41
denti@@ 41
essence 41
fice 41
fin 41
gle 41
gues 41
impression 41
impul@@ 41
irs 41
newsp@@ 41
photo@@ 41
propag@@ 41
quel@@ 41
rep@@ 41
sport 41
stly 41
synchron@@ 41
tap@@ 41
visions 41
1990 40
Q 40
alls 40
bure@@ 40
corru@@ 40
dure 40
ech 40
expressions 40
fashi@@ 40
instant 40
justi@@ 40
lev@@ 40
lit 40
poss@@ 40
provo@@ 40
putation 40
sof@@ 40
sour@@ 40
tab@@ 40
trop@@ 40
tu 40
Grand 39
San@@ 39
Yor@@ 39
ada 39
ano 39
bie 39
billi@@ 39
commerci@@ 39
cus@@ 39
environ@@ 39
excit@@ 39
grow@@ 39
knowle@@ 39
participation 39
pedia 39
radic@@ 39
regard 39
secrets 39
Franc@@ 38
Z 38
absence 38
aise 38
altern@@ 38
ativity 38
civ@@ 38
configur@@ 38
dou@@ 38
excellent 38
extraordin@@ 38
fs 38
illu@@ 38
industri@@ 38
internet 38
les@@ 38
lor@@ 38
me-@@ 38
mic@@ 38
ood 38
oul@@ 38
pause 38
probl@@ 38
propose 38
proposition 38
rav@@ 38
scanner 38
seem@@ 38
tale 38
tory 38
won@@ 38
NA 37
amine 37
automobile 37
campaig@@ 37
cord 37
ein 37
extrem@@ 37
gent 37
ided 37
installation 37
lear 37
oblig@@ 37
otes 37
perf@@ 37
solu@@ 37
tible 37
til 37
ventions 37
administr@@ 36
au 36
ebr@@ 36
itely 36
jet 36
know@@ 36
mainten@@ 36
pens@@ 36
peti@@ 36
porter 36
prop@@ 36
regar@@ 36
regard@@ 36
ron@@ 36
submer@@ 36
surviv@@ 36
uch 36
urban@@ 36
usion 36
va@@ 36
Fr@@ 35
agan 35
aria 35
clear@@ 35
document@@ 35
enorm@@ 35
estern 35
euro@@ 35
foie 35
hus@@ 35
im 35
lites 35
obs 35
opin@@ 35
ousness 35
philosop@@ 35
pour 35
previ@@ 35
prise 35
selves 35
stabil@@ 35
tables 35
tude 35
Coc@@ 34
ID@@ 34
John@@ 34
LA 34
Val@@ 34
amie 34
atten@@ 34
bec@@ 34
beh@@ 34
composition 34
ives 34
pays 34
pense 34
ry@@ 34
sir 34
suppl@@ 34
terrain 34
titudes 34
Mexic@@ 33
atri@@ 33
brilli@@ 33
cau@@ 33
ches@@ 33
cy 33
fically 33
fron@@ 33
gestion 33
infr@@ 33
intu@@ 33
lad@@ 33
mation 33
maximum 33
mise 33
occasion 33
ouldn 33
pend@@ 33
ri 33
second@@ 33
sep@@ 33
vent 33
Euro@@ 32
Som@@ 32
acier 32
auto@@ 32
automo@@ 32
avi@@ 32
cident 32
circuits 32
cracy 32
dise 32
envelop@@ 32
evid@@ 32
ez 32
jug@@ 32
mobil@@ 32
nee@@ 32
neg@@ 32
observe 32
ollywood 32
ors@@ 32
reproduction 32
ro 32
termin@@ 32
there@@ 32
valu@@ 32
warm@@ 32
Jus@@ 31
agents 31
align@@ 31
annivers@@ 31
aph@@ 31
ause 31
catastrop@@ 31
command@@ 31
crati@@ 31
cris@@ 31
cruci@@ 31
eau 31
equi@@ 31
ettes 31
eur@@ 31
lement 31
lions 31
nat@@ 31
oce@@ 31
orm@@ 31
pati@@ 31
positi@@ 31
press@@ 31
publi@@ 31
quick@@ 31
tel 31
vern@@ 31
verts 31
Afri@@ 30
Mid@@ 30
Public 30
ami 30
angu@@ 30
bill@@ 30
civi@@ 30
coin 30
comment@@ 30
dents 30
dispos@@ 30
eil 30
epidem@@ 30
hav@@ 30
ich 30
icity 30
intervention 30
itage 30
journal 30
ograp@@ 30
passage 30
plic@@ 30
pour@@ 30
regre@@ 30
thi@@ 30
timately 30
Cel@@ 29
Hom@@ 29
Ori@@ 29
Tro@@ 29
adul@@ 29
augment@@ 29
convinc@@ 29
demand@@ 29
destruc@@ 29
dow@@ 29
ectu@@ 29
emb@@ 29
ergy 29
hundre@@ 29
ials 29
ington 29
intention 29
lem@@ 29
mirac@@ 29
ni 29
pes@@ 29
plea@@ 29
ques 29
shap@@ 29
spatial 29
tent@@ 29
unes 29
wom@@ 29
year@@ 29
+ 28
Pak@@ 28
Pres@@ 28
alphab@@ 28
appropri@@ 28
bli@@ 28
capac@@ 28
circulation 28
eties 28
fen@@ 28
gie 28
gn@@ 28
immense 28
incar@@ 28
portable 28
prises 28
remark@@ 28
rier 28
scienti@@ 28
talents 28
tely 28
ule 28
unch 28
Av@@ 27
TE@@ 27
acro@@ 27
adver@@ 27
atmo@@ 27
centr@@ 27
efully 27
gel@@ 27
glaci@@ 27
just@@ 27
rels 27
rer 27
responsi@@ 27
stock@@ 27
tem@@ 27
through@@ 27
till@@ 27
tish 27
urb@@ 27
vide@@ 27
Ira@@ 26
Joh@@ 26
amb@@ 26
aque 26
asp@@ 26
bel 26
bir@@ 26
care@@ 26
circu@@ 26
compr@@ 26
dio 26
hap@@ 26
it-@@ 26
lication 26
magaz@@ 26
ough@@ 26
rie 26
sang 26
tours 26
volun@@ 26
Brit@@ 25
Del@@ 25
La 25
agno@@ 25
ani@@ 25
ateur 25
atur@@ 25
busin@@ 25
cad@@ 25
ception 25
chal@@ 25
chef 25
child@@ 25
compati@@ 25
conscience 25
desc@@ 25
esc@@ 25
escal@@ 25
hall@@ 25
issu@@ 25
jam@@ 25
massi@@ 25
mi 25
nately 25
oir 25
probable 25
sear@@ 25
sie 25
themati@@ 25
Dav@@ 24
Roy@@ 24
aire 24
aut@@ 24
biles 24
bon 24
catastrophe 24
ci 24
coch@@ 24
combat 24
conception 24
del 24
ducation 24
dures 24
est-@@ 24
eum 24
extra@@ 24
fruits 24
habit@@ 24
ila 24
istry 24
kilom@@ 24
neu@@ 24
ony@@ 24
perspec@@ 24
pron@@ 24
quent 24
quez 24
respir@@ 24
resul@@ 24
tiz@@ 24
traff@@ 24
tremend@@ 24
univers@@ 24
vill@@ 24
vis 24
world@@ 24
S. 23
aud@@ 23
aura 23
behav@@ 23
com 23
compli@@ 23
dispar@@ 23
effec@@ 23
ester@@ 23
exerc@@ 23
grou@@ 23
jour@@ 23
mater@@ 23
obstac@@ 23
phon@@ 23
posi@@ 23
relev@@ 23
reu@@ 23
riv@@ 23
sands 23
shir@@ 23
tro 23
volution 23
Austr@@ 22
affir@@ 22
aiss@@ 22
ard@@ 22
blan@@ 22
coff@@ 22
comb@@ 22
dle 22
duce 22
embl@@ 22
ers@@ 22
evolu@@ 22
gether 22
gram@@ 22
grave 22
hors 22
illage 22
imes 22
isions 22
mang@@ 22
pied 22
sai@@ 22
sever@@ 22
tot@@ 22
tradi@@ 22
transi@@ 22
tribu@@ 22
venue 22
Cert@@ 21
aller 21
antages 21
caf@@ 21
cle@@ 21
cogni@@ 21
const@@ 21
earing 21
ence@@ 21
entually 21
esn 21
financi@@ 21
ford 21
gar 21
gars 21
maxim@@ 21
observer 21
ont 21
poll@@ 21
principal 21
rest@@ 21
sau@@ 21
stac@@ 21
vements 21
voyage 21
Americ@@ 20
M. 20
Uni@@ 20
allons 20
bons 20
dden 20
dimin@@ 20
dor@@ 20
dru@@ 20
elle 20
fric@@ 20
fus@@ 20
ggle 20
ille 20
instr@@ 20
istr@@ 20
lem 20
matern@@ 20
milit@@ 20
mons 20
notic@@ 20
pond 20
premi@@ 20
prote@@ 20
remar@@ 20
roy@@ 20
sci@@ 20
seri@@ 20
surveill@@ 20
umul@@ 20
vin 20
CO@@ 19
Europe@@ 19
Imag@@ 19
K. 19
Le 19
Pers@@ 19
alg@@ 19
anx@@ 19
appr@@ 19
avail@@ 19
cass@@ 19
chang@@ 19
clas@@ 19
ec 19
ectr@@ 19
fabric@@ 19
intellectu@@ 19
parall@@ 19
server 19
tran@@ 19
usage 19
“ 19
” 19
IR@@ 18
IT 18
Ou@@ 18
Rich@@ 18
Stan@@ 18
Stre@@ 18
abe 18
actly 18
alph@@ 18
captur@@ 18
correspond 18
es-@@ 18
iens 18
iles 18
immen@@ 18
internation@@ 18
itu@@ 18
march@@ 18
nie 18
nour@@ 18
orrow 18
program@@ 18
sit@@ 18
ssi@@ 18
suscep@@ 18
toire 18
ures 18
é 18
Fro@@ 17
PI@@ 17
Stat@@ 17
amen@@ 17
commerce 17
complex@@ 17
doll@@ 17
esterday 17
eur 17
extre@@ 17
fair@@ 17
feed@@ 17
franch@@ 17
get@@ 17
intell@@ 17
ira 17
iser 17
lumin@@ 17
ois 17
ordin@@ 17
oug@@ 17
personnel 17
prosp@@ 17
respec@@ 17
senti@@ 17
ston 17
trai@@ 17
trine 17
Angel@@ 16
Bra@@ 16
Ma 16
abe@@ 16
axe 16
bile 16
cellu@@ 16
dai@@ 16
emble 16
esse 16
explorer 16
expres@@ 16
insp@@ 16
istan 16
lier 16
mari@@ 16
ologues 16
oppos@@ 16
phil@@ 16
ppe 16
quel 16
sert 16
sus@@ 16
terres@@ 16
ween 16
Beau@@ 15
Chic@@ 15
Ox@@ 15
Scho@@ 15
cellent 15
chea@@ 15
cidents 15
cit@@ 15
devi@@ 15
divis@@ 15
ell-@@ 15
expan@@ 15
fabrication 15
fortu@@ 15
has@@ 15
ieu 15
lications 15
manifes@@ 15
organ@@ 15
oux 15
performan@@ 15
phen@@ 15
propri@@ 15
py@@ 15
reconn@@ 15
riage 15
stupi@@ 15
tier 15
AD@@ 14
Ess@@ 14
Glo@@ 14
arriv@@ 14
ateurs 14
atis@@ 14
atre 14
attend 14
cess@@ 14
craz@@ 14
dos 14
eces 14
erie 14
figh@@ 14
futu@@ 14
ident 14
interro@@ 14
introdu@@ 14
journ@@ 14
natu@@ 14
osau@@ 14
prob@@ 14
rant 14
suppos@@ 14
tus 14
vend@@ 14
á@@ 14
Chin@@ 13
Engl@@ 13
Marti@@ 13
Micro@@ 13
You@@ 13
agne 13
anni@@ 13
ante 13
champ@@ 13
chant 13
circ@@ 13
condu@@ 13
descend 13
dialo@@ 13
durable 13
gles 13
iner 13
infrastruc@@ 13
j 13
nav@@ 13
paig@@ 13
pattern@@ 13
photographi@@ 13
pren@@ 13
queue 13
reuse 13
ridicule 13
sage 13
sein 13
= 12
Eu@@ 12
Nig@@ 12
adore 12
aires 12
assi@@ 12
assur@@ 12
bases 12
call@@ 12
clair 12
combus@@ 12
dess@@ 12
eci@@ 12
effic@@ 12
evin 12
expen@@ 12
hore 12
intelli@@ 12
intellig@@ 12
marin 12
menti@@ 12
quer 12
spectr@@ 12
suite 12
tort 12
vul@@ 12
) 11
@ 11
IDS 11
Inst@@ 11
Ja@@ 11
acter@@ 11
ais 11
artifici@@ 11
au-@@ 11
bou@@ 11
bras 11
catastr@@ 11
curi@@ 11
descend@@ 11
dire 11
diseas@@ 11
eh 11
enf@@ 11
espo@@ 11
exac@@ 11
factu@@ 11
fices 11
hic@@ 11
influenc@@ 11
isons 11
jet@@ 11
lever 11
mage 11
maj@@ 11
non 11
oi 11
payer 11
petite 11
pharmac@@ 11
q 11
religi@@ 11
strateg@@ 11
tech@@ 11
trem@@ 11
ules 11
viv@@ 11
ö@@ 11
# 10
% 10
accor@@ 10
achi@@ 10
andis 10
anthro@@ 10
aut 10
cens@@ 10
chefs 10
constru@@ 10
derni@@ 10
design@@ 10
dis 10
enge 10
exemp@@ 10
famili@@ 10
financ@@ 10
hosp@@ 10
impli@@ 10
ival@@ 10
ji@@ 10
nant 10
nies 10
obj@@ 10
pos 10
rase 10
rons 10
sentiments 10
situ@@ 10
te-@@ 10
tique 10
vie 10
ycl@@ 10
– 10
1000 9
Harv@@ 9
Plus 9
Rw@@ 9
Univers@@ 9
Wiki@@ 9
ador@@ 9
agues 9
aines 9
amour 9
aper@@ 9
ationale 9
atti@@ 9
coup 9
dan@@ 9
desp@@ 9
diri@@ 9
eras 9
erre 9
fier 9
fon@@ 9
fond 9
gag@@ 9
gau@@ 9
iPh@@ 9
km 9
licated 9
mans 9
mets 9
monstr@@ 9
necess@@ 9
odes 9
orge 9
rir 9
sentiment 9
sophis@@ 9
sorti@@ 9
spectacle 9
tabl@@ 9
telev@@ 9
titude 9
ó@@ 9
( 8
Car 8
Il 8
Institu@@ 8
Moo@@ 8
Son 8
abl@@ 8
ainst 8
angi@@ 8
antage 8
ayons 8
cartes 8
dimen@@ 8
dn 8
eons 8
ert@@ 8
essenti@@ 8
feel@@ 8
fiel@@ 8
gren@@ 8
habitu@@ 8
iment 8
irst 8
lowly 8
ministr@@ 8
mur 8
nou@@ 8
pharm@@ 8
plier 8
pment 8
pover@@ 8
quette 8
sag@@ 8
seu@@ 8
swi@@ 8
tionnaire 8
trom@@ 8
usement 8
voy@@ 8
Af@@ 7
Ce@@ 7
De 7
Ghan@@ 7
Shan@@ 7
Tou@@ 7
accord 7
aphor 7
assis 7
augmentation 7
bour@@ 7
brill@@ 7
brit@@ 7
cas 7
changer 7
chir@@ 7
cuisine 7
danger@@ 7
derson 7
enne 7
espr@@ 7
exer@@ 7
famil@@ 7
figu@@ 7
jau@@ 7
je 7
masse 7
moment-@@ 7
mour@@ 7
par 7
pau@@ 7
ping@@ 7
pire 7
poign@@ 7
pont 7
quas@@ 7
raid 7
ramen@@ 7
rejo@@ 7
riches 7
soul@@ 7
strat@@ 7
titu@@ 7
trice 7
wich 7
000 6
ON@@ 6
Thom@@ 6
avan@@ 6
bas 6
cet 6
chute 6
comple@@ 6
conduit 6
consi@@ 6
convers@@ 6
corps 6
critique 6
dership 6
eurs 6
exi@@ 6
exions 6
garde 6
gratu@@ 6
langu@@ 6
liqui@@ 6
maths 6
noy@@ 6
orie 6
parole 6
rapid@@ 6
sac 6
sph@@ 6
tas 6
tenant 6
trib@@ 6
ult 6
ustr@@ 6
vos 6
vous 6
your@@ 6
í@@ 6
… 6
* 5
Bron@@ 5
Fren@@ 5
Twit@@ 5
VI@@ 5
accessi@@ 5
atement 5
atrice 5
auto-@@ 5
auv@@ 5
celer@@ 5
cert@@ 5
chin@@ 5
conten@@ 5
dans 5
dre 5
effor@@ 5
enci@@ 5
ensemble 5
ente 5
fab@@ 5
flux 5
formidable 5
histo@@ 5
imming 5
impanz@@ 5
import@@ 5
indus@@ 5
isco 5
lanc@@ 5
lease 5
lut@@ 5
major@@ 5
mont@@ 5
onne 5
ources 5
ouvre 5
pom@@ 5
poni@@ 5
premier 5
proces@@ 5
r. 5
ridi@@ 5
sol 5
sop@@ 5
spati@@ 5
tware 5
voir 5
vou@@ 5
z-@@ 5
ä@@ 5
Amer@@ 4
Main@@ 4
N. 4
Soleil 4
Tex@@ 4
astruc@@ 4
aux 4
bale@@ 4
boul@@ 4
chrom@@ 4
communi@@ 4
cules 4
culp@@ 4
degre@@ 4
demon@@ 4
dez 4
dia@@ 4
dience 4
eah 4
encore 4
entre 4
esser 4
euse 4
fail@@ 4
fum@@ 4
genre 4
habitants 4
had@@ 4
infanti@@ 4
ique 4
itures 4
liens 4
logue 4
milieu 4
minu@@ 4
neath 4
nom 4
oeil 4
parl@@ 4
pas 4
perfor@@ 4
pie@@ 4
pons 4
primer 4
princip@@ 4
propos 4
qui 4
quo@@ 4
ray@@ 4
rester 4
sans 4
scol@@ 4
signifi@@ 4
sional 4
tard 4
tegr@@ 4
tels 4
tex 4
tomb@@ 4
tsunam@@ 4
í 4
Auc@@ 3
Benjam@@ 3
Califor@@ 3
Eh 3
Et 3
Face@@ 3
Les 3
Micha@@ 3
Paci@@ 3
Wash@@ 3
^ 3
ailles 3
aimer 3
aises 3
ande 3
apr@@ 3
artic@@ 3
artis@@ 3
asse 3
asse@@ 3
aux@@ 3
avez 3
ayant 3
bey@@ 3
champ 3
chauff@@ 3
ché 3
coeur 3
cule 3
diale 3
dons 3
déc@@ 3
empor@@ 3
endant 3
entour@@ 3
eux 3
expon@@ 3
faux 3
goti@@ 3
happen@@ 3
heu@@ 3
him@@ 3
iers 3
infir@@ 3
isse 3
iste 3
joie 3
jour 3
lent 3
maladies 3
mortal@@ 3
murs 3
nous 3
oui 3
pensions 3
pertin@@ 3
petites 3
princi@@ 3
prun@@ 3
quarti@@ 3
quet 3
rapport 3
refus@@ 3
rez 3
signi@@ 3
tau@@ 3
techni@@ 3
terr@@ 3
tien 3
tifs 3
tir 3
transformer 3
traver@@ 3
vite 3
vivre 3
voire 3
ã@@ 3
ème 3
é@@ 3
ñ@@ 3
Ca 2
Dans 2
How@@ 2
Notre 2
Nouv@@ 2
YouTu@@ 2
absolu@@ 2
aime 2
aisse 2
antes 2
beau@@ 2
bibli@@ 2
brou@@ 2
bureau 2
cach@@ 2
cadre 2
canc@@ 2
chez 2
cien 2
cipl@@ 2
cog@@ 2
commen@@ 2
commenc@@ 2
confl@@ 2
cours 2
cultu@@ 2
dament@@ 2
dix 2
donn@@ 2
drome 2
dur 2
décl@@ 2
elles 2
elop 2
esprit 2
every@@ 2
exion 2
existent 2
feu@@ 2
flot@@ 2
fond@@ 2
font 2
gramme 2
grand-@@ 2
hier 2
icals 2
identifier 2
illes 2
inqui@@ 2
jou@@ 2
lu 2
lui 2
lym@@ 2
moi 2
mots 2
music@@ 2
norm@@ 2
oeuvre 2
ographi@@ 2
olly@@ 2
onc@@ 2
onde 2
ons-@@ 2
opportun@@ 2
particul@@ 2
pendant 2
pla@@ 2
poche 2
porte 2
possibil@@ 2
quotidi@@ 2
rien 2
sach@@ 2
sembl@@ 2
semble 2
sement 2
sens 2
souvenir 2
suj@@ 2
tat 2
tester 2
teur 2
tiers 2
tiques 2
tout 2
tre 2
trous 2
vies 2
ving@@ 2
£ 2
É@@ 2
ç@@ 2
éter 2
ête 2
ø@@ 2
ü@@ 2
.. 1
.000 1
Actu@@ 1
Afghan@@ 1
Ain@@ 1
Alors 1
Angl@@ 1
Ano@@ 1
Des 1
Encore 1
Fey@@ 1
Japan@@ 1
Je 1
Lon@@ 1
Lond@@ 1
Mon 1
Moy@@ 1
Orient 1
Pens@@ 1
Pour@@ 1
Premi@@ 1
Quand 1
Que 1
Regar@@ 1
Sur 1
Tu 1
Une 1
Voilà 1
\ 1
_ 1
abs@@ 1
accompli@@ 1
aill@@ 1
amis 1
anglais 1
appel@@ 1
asser 1
autor@@ 1
avis 1
avoc@@ 1
aï@@ 1
bien 1
biz@@ 1
bizar@@ 1
bois 1
bonheur 1
bonne 1
bord 1
brah@@ 1
bre 1
café 1
carte 1
centre 1
chant@@ 1
chau@@ 1
clav@@ 1
cole 1
complexes 1
comport@@ 1
connais 1
coup@@ 1
difficile 1
dé@@ 1
ectly 1
ellite 1
enfant 1
ennes 1
ennu@@ 1
enthou@@ 1
entre@@ 1
espace 1
essay@@ 1
eu 1
exposé 1
extraordinaire 1
facile 1
fait 1
fant@@ 1
fou@@ 1
globale 1
gou@@ 1
hui 1
icro@@ 1
ien 1
ige 1
imprim@@ 1
inspi@@ 1
instein 1
issons 1
jours 1
largement 1
lib@@ 1
logici@@ 1
mais 1
marche 1
mau@@ 1
maz@@ 1
menace 1
mes-@@ 1
minus@@ 1
molec@@ 1
mondiale 1
morale 1
motif 1
mous@@ 1
moy@@ 1
mé@@ 1
nities 1
noir 1
obvi@@ 1
omen@@ 1
ondes 1
onner 1
orith@@ 1
ource 1
ouv@@ 1
parfait 1
parle 1
passer 1
penser 1
penses 1
petit 1
phen 1
physique 1
placer 1
plai@@ 1
plat 1
poser 1
prati@@ 1
prend 1
pu 1
pub@@ 1
quant 1
quelque 1
raison 1
relation@@ 1
rend 1
respi@@ 1
ress@@ 1
reuses 1
rivi@@ 1
ront 1
roul@@ 1
rue 1
ré@@ 1
sable 1
sera 1
servi@@ 1
soir 1
sous-@@ 1
sunam@@ 1
sur 1
t-on 1
teau 1
technologi@@ 1
tera 1
tez 1
tif 1
timat@@ 1
toile 1
tous 1
travail 1
travers@@ 1
tres 1
tue 1
tunities 1
usu@@ 1
vente 1
vois 1
 1
 1
Ça 1
à 1
â 1
â@@ 1
ça 1
è@@ 1
écl@@ 1
ée 1
ées 1
él@@ 1
éli@@ 1
étoile 1
être 1
ël 1
ú@@ 1
ā@@ 1
Ă@@ 1
ć 1
ē 1
Ť 1
˚ 1
‘ 1
你@@ 1
葱 1
送@@ 1
madeupword0000 0
